/model.0/conv/Conv_param_0 268.196381 23.105989 97.905724 10.808577 108.303513 41.603333 67.029320 34.850063 11.220664 12.201779 80.021881 14.828550 120.070633 13.988130 12.997413 48.590202 9.132791 25.921448 12.920785 107.899055 22.450134 174.117249 8.892132 38.156124 78.358429 172.036362 12.032577 25.164360 22.182501 96.589409 337.630432 34.753845 
/model.1/conv/Conv_param_0 168.757492 313.249786 374.246826 350.854431 131.648895 287.743439 249.797379 296.896667 244.610123 331.234558 192.223892 317.298981 229.625214 235.411591 590.144836 216.718887 368.817566 172.610672 187.409485 195.437119 866.298767 290.735596 327.696991 391.344849 318.345825 484.538574 253.434036 402.870483 681.679626 167.802185 580.842529 141.107391 159.345657 262.285095 232.394165 342.072632 271.239899 192.635025 508.712097 250.788086 486.647430 577.743469 385.844025 459.542480 239.464371 480.650757 606.470459 285.483124 263.111450 211.950119 222.836990 220.312332 468.081543 474.228302 245.596069 286.550049 315.367950 281.324005 246.864975 184.251633 370.928375 252.003204 684.319275 352.384583 
/model.2/cv1/conv/Conv_param_0 312.929138 1221.392822 491.855164 192.023727 470.839508 794.877380 873.656921 2961.514160 1713.713989 421.405212 880.728760 1256.170288 663.668396 313.885315 1612.518066 562.865173 566.572510 751.272339 1512.525269 421.978546 457.068573 283.101654 1153.040771 1070.266968 1586.766235 758.506409 817.815674 224.863647 437.170441 673.276123 408.319183 237.224716 
/model.2/cv2/conv/Conv_param_0 494.290375 415.788666 674.483582 304.065277 335.650879 263.680481 233.624176 267.510406 379.352692 272.404480 211.860550 436.128906 455.434357 266.710297 259.645081 213.807144 683.545593 517.759583 196.493011 420.982697 316.783966 443.858429 209.372162 365.795898 237.508606 84.635590 435.838135 200.712234 251.029770 463.656921 406.935150 313.429352 
/model.2/m/m.0/cv1/conv/Conv_param_0 239.771362 68.720650 36.593945 207.196335 51.873951 43.043091 188.907364 61.361015 66.865280 109.570297 231.874542 48.013668 82.523560 150.233719 188.082336 85.413391 133.623428 74.836243 39.542377 124.762985 67.811897 148.150665 134.847565 91.134354 269.108124 88.153961 171.509644 93.956757 148.741776 176.564697 101.337746 74.648735 
/model.2/m/m.0/cv2/conv/Conv_param_0 35.370888 12.311449 53.688145 36.904308 40.142151 19.135067 46.515182 23.920153 42.187553 56.681351 25.428303 14.079383 22.010471 28.852539 54.527473 37.197311 36.520947 51.532169 29.125187 32.421444 44.836937 13.085962 26.414188 26.842859 53.320572 15.446911 70.955406 33.140533 25.543102 40.899902 20.412750 25.372482 
/model.2/cv3/conv/Conv_param_0 223.510391 271.999176 198.586411 256.789185 203.582901 237.609406 168.399429 358.554779 208.004120 304.479004 207.702240 392.665802 270.138550 228.844086 330.363312 298.345703 206.411880 214.052979 206.989532 247.949432 263.905548 176.281021 227.954620 215.931061 357.479279 315.983490 271.840302 570.400024 344.096252 200.538223 263.330963 206.609741 271.172394 225.059387 291.414612 181.026505 380.474976 297.074799 426.822968 279.735687 247.436905 354.029114 235.537445 328.798218 425.084930 210.795914 293.990204 358.294617 270.853729 175.043594 353.511627 324.917664 660.743469 206.525253 337.529144 192.021042 332.688721 563.067383 315.724670 604.428467 243.558456 133.588135 241.610413 355.192261 
/model.3/conv/Conv_param_0 1823.371826 745.857300 893.966309 573.788757 2081.638916 575.829468 715.060059 641.821289 494.096313 1647.829712 1282.546509 1005.090637 1232.734009 1002.289490 846.829773 894.842468 1427.821411 780.607300 1194.194580 1058.852783 693.084900 549.044495 668.909607 533.844543 1292.828735 1913.929688 1067.573975 535.343872 1000.448242 1520.766968 1176.995239 522.300659 1069.974487 1650.599731 805.670654 1392.540161 717.965088 693.205017 978.915283 908.649780 489.098969 757.526978 1562.790527 642.296204 898.865112 883.677551 664.446533 629.232422 880.988770 605.956177 627.763611 723.656372 901.901733 1383.879272 825.320862 1550.796509 512.481140 1567.025146 559.593933 1264.343750 810.678406 697.447449 1250.763550 699.849487 1758.521362 1177.300049 916.638977 597.357605 706.689392 1476.030884 1087.227905 879.195496 1237.185547 1224.178223 656.533875 930.881714 678.243469 843.793457 619.072144 536.630432 665.012939 683.926392 1352.972412 501.110413 795.152466 608.085938 1463.523193 1208.687134 756.961243 594.472717 218.568832 1466.399048 840.746460 776.684143 941.866089 622.160339 942.937927 813.145691 1112.378784 513.764221 596.554504 618.140747 1014.520447 812.919312 716.864075 716.565552 419.703949 855.053040 641.525146 793.642639 548.423828 1320.266113 1380.872803 1903.828735 563.000366 950.154907 805.279846 1100.132935 545.090454 1159.134766 785.566772 930.487854 1313.207153 998.402832 1034.766357 519.711914 767.420044 742.522827 
/model.4/cv1/conv/Conv_param_0 1052.002441 853.226990 407.026031 1017.687378 355.204773 971.206909 1124.689087 1441.868042 664.039001 567.157715 788.998047 862.933105 571.133606 569.292175 927.102905 672.681091 367.735046 980.621826 169.541840 965.563171 402.453125 1273.990845 448.458435 1393.641602 831.767883 582.225769 756.095459 495.612030 1345.242432 1419.741577 594.647705 564.223572 365.140900 796.273010 829.577881 353.555267 362.018219 956.234375 457.540100 696.890625 1011.466003 352.330688 554.664062 477.123230 516.481934 525.958862 1087.073608 739.789734 726.593811 716.264404 243.700668 983.511780 690.696960 1243.703247 783.925110 531.201843 529.322144 588.498962 624.585388 760.805237 1124.816650 663.909912 507.705627 380.080994 
/model.4/cv2/conv/Conv_param_0 236.649750 99.595161 292.600739 252.512817 218.827438 97.061340 156.642578 140.325348 150.836060 208.455719 248.703537 86.235977 295.146545 229.562485 206.467041 266.951599 189.482849 153.016312 101.946014 151.616348 174.440598 146.263626 115.025848 92.240540 89.449394 133.683426 141.951675 174.804779 254.059174 247.713760 213.954422 96.308914 159.942902 258.349487 321.373505 217.595642 293.111481 221.728378 107.328491 211.551712 85.489349 118.932404 88.349525 164.394547 109.807907 147.520416 371.779816 126.979347 203.670380 212.268951 101.677971 163.618042 129.570251 234.394547 285.710327 408.540924 239.359985 165.796814 142.105438 171.102493 98.936432 87.288139 113.477333 222.106049 
/model.4/m/m.0/cv1/conv/Conv_param_0 110.338379 110.824982 66.559074 78.195816 115.789169 92.845383 63.934494 69.562134 81.152702 69.501427 98.710838 116.343864 98.124481 82.204315 95.922943 105.865807 81.338249 82.062958 43.440285 99.429718 108.995903 60.047516 86.822342 77.308617 85.577805 89.543007 71.234955 114.204681 67.379128 75.137070 51.981018 160.920486 105.682014 103.234467 69.797928 40.781746 99.202118 54.803253 84.037903 73.899155 87.632080 94.161674 77.817589 86.065178 135.744980 74.686638 72.186890 33.607388 75.156540 59.944077 76.510246 90.266953 80.758385 76.171455 74.111832 90.822807 76.431351 80.190392 68.698372 71.899368 72.710625 92.743172 82.064201 81.531517 
/model.4/m/m.0/cv2/conv/Conv_param_0 151.762878 342.603058 214.081665 187.418610 215.690994 145.045822 156.640961 175.087036 125.038048 174.825409 102.498695 191.567581 137.930771 120.629021 168.924088 130.863327 91.774117 145.223663 162.247940 254.957870 104.131660 118.251770 115.386841 101.662216 229.792877 150.671707 101.892555 126.372147 228.399063 130.207794 118.460159 120.107620 118.661278 122.981888 285.730011 168.210907 246.932175 122.099243 124.847649 161.862671 150.679993 115.830864 66.214394 175.978180 101.505814 155.195938 106.402908 141.585190 90.864555 129.532944 273.564697 184.925964 85.750641 108.719124 162.208908 145.511017 189.033218 138.280899 105.708000 291.851288 147.180115 192.904770 105.285912 103.185471 
/model.4/m/m.1/cv1/conv/Conv_param_0 156.454300 132.380890 127.588455 114.481995 100.267586 122.964012 68.062149 144.517609 250.664825 123.271042 190.325272 144.205124 286.150146 179.103302 173.524490 154.438644 245.284943 125.470428 131.991302 162.602142 127.919258 188.558807 62.395535 213.352997 88.193039 138.245499 104.426201 354.108856 168.899261 267.414917 230.532196 106.399460 142.037247 261.132599 172.295212 244.868622 128.347321 114.801498 231.001221 245.948532 95.944275 209.194489 176.889694 181.819260 149.873383 168.399414 98.158646 212.495148 108.701591 135.276688 137.886948 201.284561 182.241959 104.336365 112.242981 137.643387 99.235687 129.723999 91.597923 103.072723 76.835518 216.324097 177.005310 161.043335 
/model.4/m/m.1/cv2/conv/Conv_param_0 92.824982 126.328110 70.262955 102.913116 77.955757 110.371590 73.585991 108.196083 61.738724 63.781338 52.120544 89.674652 44.062187 70.368744 111.504242 67.441589 76.461380 72.346672 63.835354 159.955841 33.361862 84.555077 103.526459 82.555992 106.965790 104.364700 80.068398 73.384956 75.673225 73.852905 71.583565 76.790939 48.591103 91.012558 127.867783 62.392731 134.080078 75.038666 65.963341 77.116058 66.234604 65.519997 60.677475 93.816818 82.836838 92.222969 78.318047 74.354149 91.864952 96.837845 95.349571 104.101875 39.982456 61.032734 114.536736 103.887009 111.968033 78.803673 61.653252 100.536751 101.363785 91.643288 69.504929 68.296028 
/model.4/cv3/conv/Conv_param_0 661.493347 355.354034 636.066345 325.795990 356.415894 237.140366 402.317719 865.999939 477.049866 329.318451 384.205536 733.521851 415.716919 415.072815 373.783936 344.233856 381.353241 338.192566 365.698639 499.818085 346.273315 194.488861 486.559052 410.974945 452.386108 510.538177 385.371643 207.443512 514.150574 289.725555 329.777527 436.892609 308.279999 687.774597 544.027710 416.847198 421.299469 419.413849 889.548645 515.954773 344.534271 674.141846 295.457184 325.524872 439.461700 197.975891 337.240509 633.949707 237.219086 322.304810 404.553528 453.634247 231.505676 659.004944 301.507874 553.192505 368.191376 253.680267 433.738159 179.988617 395.769989 339.548553 313.866852 635.475647 466.202026 656.188965 384.759277 335.903625 467.621582 388.932281 330.575378 484.330566 321.126190 375.356812 422.123138 340.399506 328.786224 406.958557 591.095398 378.924103 187.168091 399.077148 323.656128 335.418304 542.535400 395.375336 380.008606 418.160614 279.333069 341.102325 423.786011 287.692413 217.813461 369.819733 313.664062 370.345184 330.193573 375.387726 968.952271 354.688995 513.575012 657.278931 407.810150 338.468750 411.140656 505.445770 408.014832 372.637146 289.475189 210.771027 209.472366 274.763733 543.364441 542.503967 794.245361 286.609589 221.106827 409.180786 233.354767 517.622986 363.158875 470.968842 214.752579 590.507446 217.625443 806.798889 554.168152 392.508911 
/model.5/conv/Conv_param_0 448.770752 556.948364 441.095703 615.860596 802.369568 587.345886 414.450104 810.564636 601.359314 673.052368 411.394592 545.606812 361.801300 541.776123 481.282806 496.028198 975.586487 549.107605 434.684601 316.333984 393.641449 747.813965 528.574585 333.659393 412.833344 408.658966 316.441772 861.906616 306.537659 453.080139 1059.788086 759.304138 338.535919 336.281982 714.312073 655.521912 671.071289 556.524780 800.270447 483.041229 717.481262 805.958740 395.361755 585.986877 965.877563 696.906311 574.283264 593.580139 695.139099 392.478790 532.525085 408.153107 838.117554 543.330688 392.507721 672.461914 518.135254 493.559113 719.327576 1043.305176 457.269196 347.460083 444.058014 465.050690 604.869690 553.926575 668.033508 1092.627319 692.383240 580.218750 674.480713 434.872772 554.001343 717.107178 558.587585 266.958344 483.255310 404.941711 419.464966 591.629944 844.056091 700.593140 606.960022 766.794495 933.698914 693.852600 692.987061 797.361877 690.006409 750.086548 710.481384 790.473694 722.965454 354.159332 794.861389 305.671326 587.931580 167.008240 251.948959 467.505829 505.427856 646.169006 549.743347 427.597168 563.510803 702.176025 343.727386 485.158325 897.946472 537.932007 950.435181 1116.804077 375.699097 588.862549 651.198914 582.344360 453.032166 552.299561 465.518463 583.391907 509.070679 293.917145 486.143707 948.461792 483.701324 617.915710 447.150787 559.285217 690.392273 491.684448 608.626648 609.810120 377.104858 518.153564 481.821167 581.676575 874.560791 729.084717 403.051636 625.021240 751.423950 755.287170 298.920349 502.064697 423.269379 455.051178 595.229004 557.945496 343.537018 540.591675 441.302673 551.338318 951.354553 617.346619 923.897034 678.335754 580.883728 226.069809 684.042603 755.036438 697.378601 525.091003 481.174652 543.834961 557.752808 729.489014 593.587463 643.181519 511.609863 551.913513 488.463562 541.879822 661.063660 597.856506 166.812271 512.997498 712.502747 823.982971 486.242493 792.877441 481.809875 407.793579 333.098877 361.334503 777.410828 600.812561 466.034851 322.507233 401.780762 806.963379 415.059540 448.386353 351.798462 748.018005 751.823486 503.555786 466.674957 1404.891357 635.326294 482.241608 169.920227 552.591675 742.142700 506.922211 161.865479 732.869202 433.313538 508.276917 492.472595 624.662842 498.665985 649.070984 568.211731 977.768799 894.677429 565.504578 580.131775 508.711273 512.188721 787.020447 568.783264 757.923523 513.028320 669.425171 816.527893 716.388916 445.346619 555.231628 758.272644 651.167847 378.279053 645.080322 765.604187 420.562378 319.357117 733.945251 326.673706 525.128357 611.463379 493.176422 576.190002 732.104370 459.308472 511.290527 481.026672 753.218506 744.547180 522.246216 454.491974 724.424500 777.551636 361.253937 949.403320 626.061279 422.967896 487.508698 
/model.6/cv1/conv/Conv_param_0 1067.197021 621.501282 322.039154 652.542969 664.993896 656.524841 665.704834 484.687531 1086.113892 442.846558 180.541260 545.472046 676.092773 844.769714 1405.579712 907.991028 919.087952 246.145615 1030.880737 619.974854 1028.391846 502.358734 685.212769 896.671143 504.334595 689.189514 796.205200 968.397461 833.221558 392.429413 681.444702 654.400330 782.320007 615.438721 1136.828125 1099.065796 999.268677 989.112244 739.124390 399.966492 329.644379 332.601349 624.167419 881.721252 807.178650 808.822571 1227.077271 1218.938599 468.186035 446.699066 426.523865 697.611755 1376.033691 513.527222 244.227921 1003.567017 861.509644 364.821655 738.183228 320.533813 541.374390 876.386780 611.765442 1031.092651 652.649475 533.704285 1116.525879 709.487549 384.352417 1241.087891 758.025146 744.342896 953.665649 459.892334 1101.961792 1164.121338 812.440918 788.059448 819.195129 1161.983154 380.026001 555.079346 1002.899963 933.318665 918.828796 1023.270203 1293.043701 598.410950 611.924011 554.430298 877.994202 414.265503 1129.101196 481.134705 645.614502 1267.445557 1147.111206 936.782593 440.335907 1045.756226 501.430328 959.433472 845.323120 655.175964 935.713623 719.398071 794.229797 360.617523 733.518616 1300.054443 621.737427 1017.495300 1355.431641 518.644836 968.521606 859.714905 920.984375 502.042755 629.556702 968.694519 633.871582 561.212830 808.913757 641.020264 1052.998291 615.464172 1002.400452 833.629517 
/model.6/cv2/conv/Conv_param_0 267.923889 266.537354 210.059372 212.707718 147.797974 269.382202 192.606903 351.909637 224.351318 223.852402 187.988449 234.569122 259.070984 211.316147 271.745117 224.702454 304.813446 243.603348 236.969681 242.231567 148.759445 166.488205 209.391403 236.418015 224.994217 240.475250 242.140396 219.929016 225.200577 249.611069 218.841705 268.466766 292.295135 172.948227 195.933136 222.874496 199.666794 232.770554 201.107391 224.993774 232.335968 187.832901 135.404861 274.171783 275.656372 177.559845 235.599487 214.961868 159.927811 199.231094 133.783279 123.455948 280.882874 219.038925 227.978195 371.990204 216.133102 279.268066 194.348648 241.673309 367.670288 249.853485 208.980377 128.746216 138.930435 228.904190 237.455124 274.860260 90.320358 221.482605 186.424728 222.738373 249.472580 212.573700 186.413940 296.101135 243.534073 183.562012 241.845505 189.987061 163.117889 219.744812 186.515366 261.479340 325.754639 223.652603 107.688957 270.671021 240.572708 200.698532 310.492859 204.722397 285.152740 299.890381 258.846069 149.767578 230.170425 233.568542 206.127472 212.152893 287.353699 235.975494 245.340561 197.054108 328.201263 192.063187 168.552551 184.341461 260.035004 256.370117 208.964584 172.240158 238.766342 89.675774 196.403015 251.353378 197.162109 228.105606 145.225143 226.648453 181.754440 141.186646 224.981796 247.604431 202.696976 267.979675 208.802933 260.352905 
/model.6/m/m.0/cv1/conv/Conv_param_0 102.849457 91.036331 41.835743 120.704521 113.747299 560.002686 121.736992 95.270470 82.127502 113.786491 44.273579 78.555847 97.531212 85.505157 105.492111 114.516975 87.904739 76.250893 101.305115 94.733238 57.023926 89.289558 96.493904 78.301994 61.005035 67.732880 106.394058 153.340225 101.671837 78.639961 89.700554 120.898521 77.444000 125.187935 90.648888 58.560062 85.540459 92.778687 98.953728 71.468323 87.280525 76.204292 84.072441 93.446266 112.243370 65.039093 118.822113 99.571960 86.864388 91.937424 68.009193 103.880142 95.193977 112.975922 64.329681 89.542366 98.898811 89.377701 70.765244 95.031647 46.198315 120.926743 92.601357 82.839325 100.020775 96.175934 47.271439 59.187340 88.896767 118.496254 105.941628 67.053558 99.208702 74.374901 63.327671 135.019943 94.215759 104.712608 86.256195 84.037285 109.458000 95.990967 117.682281 100.462425 81.788422 99.239830 103.544579 86.288177 73.119209 101.029236 59.117832 89.892525 99.805420 86.944664 88.330734 97.232414 118.274376 115.076988 85.007706 82.281715 97.823151 105.050713 78.494102 45.192902 88.283897 87.586403 84.257103 39.113419 99.584099 94.734573 84.220703 97.130005 121.964394 132.289673 103.459320 119.097420 82.649223 87.703323 77.566833 105.161438 108.749802 86.921967 102.793350 89.022446 109.539886 76.093643 58.537025 86.548714 
/model.6/m/m.0/cv2/conv/Conv_param_0 163.964783 166.117508 202.634262 231.317825 220.142532 246.785431 266.754608 160.579971 264.585266 245.813400 213.840164 529.490662 232.633438 263.201813 305.773132 389.227631 221.397919 67.201462 270.499359 361.918549 414.497650 257.319885 334.096832 277.160431 210.247498 174.625900 354.573608 186.808853 355.091187 227.356705 247.782043 391.137329 306.717499 146.725647 136.011536 295.250702 229.745758 329.291534 294.394165 231.074646 243.075378 60.043861 301.493408 285.124420 253.850891 113.263702 367.576233 179.442657 157.206818 352.536224 314.794464 231.538391 215.733749 268.530914 288.423676 357.064911 279.025085 329.064758 307.708313 239.503250 251.980881 245.579605 208.617661 269.090820 202.192062 283.320312 253.245682 279.129456 305.544189 235.041595 321.196686 222.999695 259.062317 190.693497 381.830811 279.728546 295.429138 186.937027 237.451767 470.492004 218.385803 215.072998 407.589172 386.903656 325.245178 398.711823 437.941071 323.872894 238.628067 268.470581 184.665054 347.044128 143.775543 95.895897 237.483673 357.014954 269.279175 312.923248 295.854614 365.231415 226.187119 280.199585 350.502350 106.136284 216.500916 330.592896 160.522064 193.728836 259.282104 305.873047 233.585953 442.089294 336.195770 346.926270 175.224106 353.085510 147.289581 313.840363 248.344284 181.696671 243.068573 360.682953 310.978088 233.023056 274.279358 148.499847 396.285767 213.870132 
/model.6/m/m.1/cv1/conv/Conv_param_0 169.459259 139.346085 75.280609 79.773636 167.480804 202.251205 146.093353 103.484184 129.049332 177.947052 137.371704 130.433075 119.724815 125.791138 126.288292 167.398972 141.349579 108.150085 149.526260 134.593170 128.609695 200.742157 174.504028 91.767281 126.508293 119.744278 197.766754 147.516418 225.703049 86.978531 187.359482 159.094193 155.656372 119.843597 133.318161 101.549370 137.345596 121.265198 201.161926 180.972672 134.355713 67.271614 108.234879 154.983917 137.247849 73.426811 167.964722 106.530602 105.066940 71.472702 152.966522 231.743103 107.204620 140.053696 108.811363 76.489319 79.192566 148.230606 178.717300 236.978745 148.350021 61.993565 88.963692 174.002243 118.582008 140.742279 131.787796 187.522446 90.314682 116.003662 117.388863 144.984116 154.065323 149.485687 212.086075 170.424911 161.404861 141.335953 110.445412 205.203110 81.415482 156.408524 134.286652 161.691589 101.771286 176.606598 193.032883 211.677765 150.937912 214.269516 201.333115 129.652679 100.411697 138.192780 134.306564 191.138733 122.565308 164.212585 159.428482 157.140213 153.059021 112.889503 141.010742 112.652802 119.108093 149.202515 102.181694 146.515045 132.443298 151.496613 116.108368 73.999413 97.872498 81.805588 135.440125 116.874237 161.112335 213.163437 139.882660 77.016731 137.122955 116.633202 164.215164 182.163147 108.719566 100.330002 153.803299 118.419632 
/model.6/m/m.1/cv2/conv/Conv_param_0 125.328186 178.138840 129.523148 137.773956 175.642990 165.854080 139.233719 112.684685 114.621750 166.784668 150.785400 224.416550 189.809616 113.260307 252.954483 107.872368 194.560852 58.220013 207.898209 105.961632 126.850098 195.678314 173.477158 153.756119 127.320778 124.105804 215.340424 185.844727 120.302368 269.728149 144.059326 184.865723 107.981308 122.158112 118.377380 127.296669 243.893494 286.448669 227.051514 102.671783 117.578926 184.364578 141.790054 47.877216 179.552094 149.361511 143.498383 167.090561 166.409042 104.652199 93.464111 223.795547 215.476486 192.356201 122.937027 160.177551 237.229431 234.827499 90.086105 232.677750 173.077896 191.852295 119.960159 102.838577 135.537399 135.424759 160.361221 125.888618 143.748398 164.299942 158.072189 150.566833 227.561920 198.940231 255.918121 138.513794 104.691986 143.625748 147.660507 114.278755 190.574753 165.887177 181.866959 119.135300 182.289871 242.884857 258.855225 179.769257 203.757751 113.125748 199.074753 188.245667 183.026566 130.975235 122.687454 210.468201 121.885094 240.985138 215.446243 206.422775 100.614037 193.749405 166.850479 120.202362 137.741882 160.199234 157.564072 151.448395 139.732590 157.168182 142.162277 186.958084 163.120163 124.887871 203.265869 243.723862 123.054008 150.306747 162.464172 235.596725 139.623001 142.931839 176.204605 164.806473 187.460022 140.885437 199.981232 138.345200 
/model.6/m/m.2/cv1/conv/Conv_param_0 365.724884 193.003387 326.733032 275.179596 255.240936 245.838303 191.100281 247.850739 269.537384 286.923431 303.881256 341.658447 254.624802 159.560608 377.957947 252.752274 361.624725 314.159424 300.302612 261.806458 234.022324 344.377197 334.477020 299.463104 308.139801 198.390152 321.370880 245.618393 312.659515 268.914307 307.864197 257.573059 258.705414 148.668045 297.502106 308.620850 260.338226 386.013458 272.116943 263.151001 405.735168 221.083313 283.262817 398.257568 157.249680 272.505493 272.068359 246.511780 137.203720 277.022644 223.301987 115.902122 229.165482 375.005280 472.875183 268.896454 275.602936 225.039673 307.842438 445.705994 311.936676 278.620056 340.563446 310.758545 275.706512 342.793549 411.406281 402.685638 303.729767 192.572662 245.372360 353.134064 447.744690 158.661438 151.383118 303.235504 170.396164 255.360641 260.676636 334.801361 429.531982 213.650635 194.506378 217.571304 331.833527 293.324524 231.965469 233.160339 393.125153 234.186661 293.981934 324.047974 307.051910 196.698578 194.884567 256.818085 311.655609 257.840149 287.500641 318.916840 286.178345 365.180450 161.719650 360.022614 229.820282 256.929993 174.584213 268.994690 237.441498 198.868164 292.632721 292.880829 197.476120 299.410217 987.394775 180.484848 362.293243 364.963135 171.564316 225.223129 302.452362 201.241501 308.246704 209.450775 230.392593 249.333435 322.010132 163.505524 
/model.6/m/m.2/cv2/conv/Conv_param_0 58.362328 120.387604 110.024643 121.297760 117.010986 57.425087 68.241127 80.955193 53.639320 146.346756 70.130234 120.049149 119.284821 53.640327 120.523300 81.360023 136.816788 26.631054 105.972015 59.234386 77.594803 99.223701 111.816376 79.280586 117.311676 128.626480 89.068871 152.151657 91.869713 57.744690 106.064857 97.086006 80.294853 64.925026 87.655701 83.856674 95.172150 113.282082 75.990028 103.776825 91.255081 85.846062 63.183525 24.534054 106.841576 132.412521 86.029358 116.339653 96.718819 101.723732 70.637321 117.882057 80.449615 96.979851 94.730026 95.507812 115.473259 160.686493 97.876816 106.479713 71.927315 82.357613 135.885315 92.549286 96.032234 112.238007 83.771759 94.741562 99.588173 90.017685 97.292992 47.297928 88.963936 138.777847 149.295990 88.144089 102.503609 58.179253 75.656853 90.658699 84.143196 100.731743 83.573463 167.828369 118.746384 131.199982 164.539062 129.913879 108.035370 89.246605 135.418839 118.224785 134.374557 85.667488 81.690292 159.114548 94.899361 146.451752 96.901283 78.887604 82.872185 126.796455 67.977676 83.505234 107.743996 142.308472 134.781509 76.566185 138.540237 105.474091 67.115181 135.675125 124.418831 77.679840 161.272079 143.124481 65.030922 73.260971 141.209106 129.218399 101.970444 140.090256 73.961914 71.144852 81.345428 104.892670 153.814499 104.951218 
/model.6/cv3/conv/Conv_param_0 696.722656 429.763885 496.167603 1063.812622 537.050171 319.925720 443.664856 194.081650 486.726288 569.709534 743.867737 782.221191 585.733459 627.378235 472.439087 336.143097 601.370361 584.191956 324.049866 785.687622 494.984131 562.597168 574.241028 531.981628 335.614471 508.613983 1030.683472 576.206665 553.757568 796.866089 665.355347 540.823669 483.437592 702.975952 615.832336 474.125183 606.339050 467.291748 428.185760 442.006989 512.184082 636.936523 471.027710 771.327759 589.503174 430.707977 354.987061 455.540344 559.641479 635.126404 490.550934 688.071777 481.057373 539.869141 634.792236 507.099487 626.825256 568.064331 587.539490 329.245789 509.587769 443.074249 819.724304 303.943085 585.118347 636.510071 579.235535 297.748535 554.553528 767.313110 642.534912 642.525452 300.073639 585.695618 723.959717 462.864380 484.759125 758.702698 499.001038 394.289581 482.132812 685.668945 552.829224 524.629333 589.363342 454.972229 345.923889 573.500183 1026.916870 680.513062 803.388184 764.884094 471.655304 964.869141 532.610901 528.418518 551.739807 590.494446 623.077576 739.387939 477.159210 331.979340 429.679993 979.615723 479.574890 613.261414 577.228271 286.588654 259.388275 410.747498 542.848267 690.130554 1113.208374 379.286804 371.035126 515.050781 679.459839 526.539307 528.302063 361.706635 703.631042 627.921448 548.530701 599.550903 728.363892 497.409363 852.231628 533.350952 533.475769 310.740875 392.969391 743.570496 480.751678 423.753418 501.786865 418.207306 625.116333 771.868652 1054.491089 737.583008 622.130859 656.938293 221.672256 494.462311 596.589294 422.052124 455.189240 734.443970 506.981812 399.482513 708.447998 338.778687 1149.954834 411.440369 711.918396 408.483185 378.287720 528.681885 587.578186 753.744812 416.435852 614.373596 494.451721 670.296631 841.048340 452.053650 650.404541 495.665771 649.158020 429.410797 768.667419 589.987244 485.758881 721.933289 771.001648 486.257019 434.553711 519.063538 512.906250 456.676575 727.040222 257.086731 673.964966 462.455383 572.573547 425.712738 979.794800 739.100952 572.762817 587.967163 302.545380 511.593964 823.159607 450.365295 458.565613 577.668396 404.336182 382.451782 358.767578 485.853516 705.930359 816.969116 665.267761 608.715759 445.235809 599.939575 472.439819 642.403503 425.599945 339.423035 732.765747 486.023499 692.536011 377.533661 656.491516 457.094360 518.769470 280.954437 859.046997 470.637207 375.967102 485.552185 651.134583 608.911255 756.030762 450.949524 649.835083 473.995728 678.086121 485.221405 499.474792 401.475647 557.400696 398.175903 612.270020 1034.307983 703.975464 475.714172 826.874207 740.434814 486.479492 672.105103 420.925995 730.481873 577.348999 680.758850 454.451050 647.337402 424.036987 681.046631 368.663452 441.215332 340.344574 453.589844 476.593201 486.862305 
/model.7/conv/Conv_param_0 962.833862 775.510193 717.371643 742.616699 1095.365479 1161.430054 980.520020 1229.135376 1088.839478 878.335266 950.050598 727.638733 951.011108 1212.347290 907.775696 903.242004 305.130219 810.480042 900.330872 835.529480 597.858765 671.740784 333.628784 744.039368 912.402222 717.617188 1189.526978 877.152527 677.408752 922.427979 1102.401978 881.604065 864.618347 841.389832 784.153748 546.930237 644.320007 1065.348877 665.787170 722.153748 1029.565674 1159.940430 658.198486 956.565186 921.418579 914.829224 985.301514 1159.464233 1036.375000 1002.455444 956.035889 1180.012207 591.126221 892.434937 716.317871 974.116394 845.679688 1254.170898 1146.218994 1044.635986 1032.570190 1152.389648 1033.579590 1281.295776 1080.005005 869.539429 670.036804 431.613922 966.843933 1091.066406 917.660400 869.170410 928.113708 1186.921509 1059.807617 860.733765 1004.969971 776.633484 660.551025 706.217041 1111.343262 1073.158936 1125.537109 692.230286 1006.266174 759.755127 955.024170 838.924316 839.664551 695.494324 572.048706 1314.379028 997.631165 683.112183 691.336487 834.442810 1335.075562 728.477661 612.662659 1252.764893 596.609985 1175.614014 1030.338867 1076.405029 965.875366 948.534424 1083.308472 1170.753174 946.533752 605.022095 617.279663 767.744995 949.371643 951.687439 826.395996 864.629639 1019.571838 1212.624146 717.136780 733.457153 915.006409 999.959534 875.769287 1012.656738 876.484131 1134.300049 698.180542 989.999390 1131.803223 910.869385 739.731995 790.461853 911.791016 843.020813 650.430664 1167.434204 852.878479 1035.058228 983.948547 763.423706 970.495178 763.966248 1229.184814 941.362183 1126.465210 1065.198608 735.227417 845.371399 651.649109 727.107117 814.468018 935.746460 730.644714 645.442383 461.764465 996.803406 749.018860 970.187073 981.403198 333.329926 947.484192 362.455841 842.077637 976.919128 1064.265381 636.645813 972.712585 1049.989502 918.744263 763.693237 740.414062 1170.518921 886.278870 607.596191 708.037720 946.072754 674.378845 1005.891785 737.481628 877.924866 1235.475098 825.681519 869.274109 958.197449 975.461853 520.266785 1041.124023 1088.826294 1044.099854 1146.229004 1018.510803 795.948364 1009.457092 893.383667 868.037476 830.725525 827.050781 768.749207 664.185181 651.567627 1015.872375 685.260010 807.911377 668.980896 1082.079468 920.875732 1017.167603 741.919189 633.073120 636.907410 974.301331 862.032104 1210.872559 538.043640 793.194824 895.170959 809.735718 725.983643 1119.218506 931.303711 831.363770 926.396606 1043.858765 850.112244 996.731628 1141.209595 780.166809 1208.700684 971.603821 903.834290 501.156555 968.607666 805.842407 845.269165 1261.647095 800.519287 1120.432983 763.197021 785.851929 776.540039 740.633667 685.252319 739.266113 895.721436 998.788269 651.899048 918.383606 806.215576 1038.681274 849.439331 815.476074 945.922424 1092.448242 499.023895 899.561707 634.849243 1063.084839 817.324524 584.417297 926.483826 1144.516602 1088.627319 905.644348 1034.066406 680.074951 1032.563965 1013.580383 1034.194946 830.853394 829.163818 835.881775 828.252380 900.591248 749.818970 726.863708 1033.805908 1236.846436 912.854431 1138.426025 1180.878052 626.994629 626.381836 1130.408081 736.769836 671.485840 933.530151 574.380066 636.079956 1580.038940 786.768799 1131.549561 1005.570679 1182.844360 1038.987549 1063.138428 1077.910767 788.726746 830.059814 788.670227 631.619568 879.174927 878.995056 556.231018 603.403870 1161.240845 526.296448 1020.757996 716.950378 1026.208984 555.107727 1010.104858 969.596069 934.732483 995.578369 866.048706 1172.843628 768.383240 634.359924 1213.912598 920.475098 793.794861 474.722382 1202.492676 800.202148 899.956604 746.539124 1289.746216 1269.377319 575.869812 871.034180 485.142151 940.440918 938.118591 620.517639 1065.763550 721.778687 851.663757 814.760742 637.758057 717.605042 1181.547119 837.109985 817.173767 1048.281738 618.523071 835.277771 1032.678345 491.127808 1166.898560 921.730713 945.822937 806.114746 913.698242 760.399902 484.837219 847.416809 1022.741882 1348.482544 1172.552246 990.766846 828.631958 475.629761 1095.538452 851.840210 797.071533 715.319580 1071.420288 796.572571 1002.648315 745.649719 621.184387 833.204956 1283.975098 758.563782 1137.977417 752.298584 937.265198 677.448181 914.216064 895.990540 773.459595 1112.838501 695.174133 942.234375 972.062378 1062.528931 373.255646 1110.738525 817.048950 675.251953 1160.954224 769.124023 924.724854 1024.061523 625.199463 702.812988 702.408142 819.451172 877.589111 1161.516479 875.126953 834.939026 819.496643 884.156982 720.548279 1100.359253 718.343628 840.274719 1083.529541 968.425537 1031.304199 1425.314087 1151.051147 993.467407 452.476624 988.871094 1220.372437 805.306335 607.064209 1154.407104 988.342957 1024.222168 1223.196411 673.168335 1054.166626 753.764099 727.800659 871.776855 760.768250 954.960205 828.364624 1267.697632 941.454407 931.891602 1249.327759 895.043640 711.229553 788.664673 1057.449463 972.543335 792.100037 1059.927002 932.739868 774.784241 823.500366 341.408539 985.125244 718.791382 1036.214355 1022.674683 953.151794 1014.815796 911.419312 941.358887 834.087341 1191.565308 450.488312 755.214172 909.803528 899.954407 1000.894714 530.857361 1044.051025 670.298218 823.264343 733.906677 753.184082 880.290161 918.272339 817.800232 867.310547 737.219238 820.646667 988.109558 880.996155 959.075378 1044.004883 927.601990 1036.059204 1062.150513 1005.830505 738.519897 1091.182129 788.553955 853.694641 1035.038452 997.901062 1217.810181 725.773499 795.677673 966.798889 430.428253 1048.280396 809.157959 1197.525146 1037.863281 641.438293 826.280518 1102.116821 1051.015259 856.646790 815.072754 1226.594727 884.810913 1029.695557 907.358582 873.463867 1075.621460 880.043640 822.162964 1152.379272 526.436279 
/model.8/cv1/conv/Conv_param_0 504.844391 866.536072 509.665405 571.267395 607.608093 522.859924 587.474304 1070.212646 429.072388 470.918274 623.255737 523.290039 647.682373 797.276062 464.952332 693.280151 639.340027 476.449188 801.319763 550.957581 679.897827 665.873291 756.766602 910.970215 415.693085 391.398438 661.485962 519.452026 615.894226 416.091583 423.230682 620.954468 710.043762 692.782043 641.884521 646.877747 238.184433 648.071106 707.557190 715.166626 1122.474731 581.738708 832.115051 845.038574 372.232422 682.454468 873.187134 609.537903 517.010681 785.270813 723.244507 487.464508 638.537170 526.946472 524.900269 684.219543 804.846436 770.575317 490.502533 586.006958 629.809937 980.464233 862.675415 489.137177 459.204346 525.236755 734.802063 523.079590 493.327026 451.899811 554.456970 659.564148 547.128052 590.513916 490.195770 749.655334 517.689880 583.203308 552.087036 499.653992 342.676788 567.762146 758.738098 568.647522 456.541077 815.489563 678.222778 493.939758 717.342712 566.757690 650.116394 703.020935 596.287476 627.251160 425.536652 498.837250 350.752289 356.027161 474.773285 739.724304 590.882629 799.035461 698.753052 978.399475 761.835449 960.721130 289.507874 714.123901 473.757629 454.131317 268.594879 532.691589 585.236206 643.620728 581.427185 682.263123 585.347595 697.377075 389.413300 550.281677 738.055054 400.364716 496.572906 588.699890 830.518555 845.670349 535.679932 489.995605 571.749023 820.081970 591.490234 354.357117 526.128418 757.765808 587.523987 513.079834 684.096130 510.708832 520.711853 386.331512 598.467407 504.900543 658.060669 630.117859 678.539124 643.203735 631.280212 605.537476 481.560242 528.557861 500.971130 781.599121 437.821503 517.450195 660.594299 545.973389 700.929382 617.513000 608.084717 706.726868 677.487732 519.502747 578.288147 496.354767 710.182739 651.130188 754.676331 549.703247 505.629639 413.611511 769.700439 743.240112 993.738770 310.439728 384.453308 562.272278 486.122955 784.105835 547.447876 513.709900 596.416443 526.917664 363.844147 965.732483 908.110046 687.887024 646.281555 342.607208 571.821594 577.774231 560.031982 525.170105 414.780579 466.449005 409.942932 294.186401 539.851868 779.625244 504.155090 662.223511 619.184998 729.324280 766.260132 549.097778 659.347107 731.670837 666.910583 805.191284 631.355713 511.747925 549.784912 701.333313 789.878174 683.813416 742.512878 784.777832 446.489807 787.557678 580.891846 507.999115 564.391418 659.141113 769.904358 658.392090 326.494141 675.966370 790.777893 485.614868 582.069214 580.264954 543.052368 836.452820 608.266907 550.696838 654.835754 518.586609 797.759094 474.051086 816.424072 727.178162 624.981262 598.057556 471.246857 380.158905 585.625916 817.390747 586.843140 696.132996 717.972046 848.453735 820.436646 726.190491 793.005615 658.621704 837.346924 603.675232 
/model.8/cv2/conv/Conv_param_0 380.916931 318.725830 361.147217 315.656128 276.226257 312.212494 301.766296 320.805786 353.476440 343.566223 313.999878 377.313446 300.280823 247.301422 289.451538 277.935272 323.670685 295.632751 328.851135 271.552856 290.815186 264.490509 352.482452 354.577026 290.171021 363.409637 361.214691 269.515106 237.012573 349.237183 328.706390 343.255157 268.918457 308.363647 253.331131 393.515137 233.379776 326.500610 339.683716 358.914856 297.961914 316.372040 375.775360 326.526031 349.359863 369.098511 291.456360 374.425110 437.695068 375.914032 305.080444 345.280334 386.483917 293.546661 325.633087 364.824219 354.022583 294.108917 285.535675 345.807343 362.636292 315.701813 372.543762 331.592438 292.134033 383.451965 274.403931 333.290833 307.364227 288.976837 334.117920 214.383377 369.637299 288.701538 298.624969 371.123199 297.429077 414.466400 324.162384 215.491257 305.337677 358.204468 310.850311 291.945862 447.455994 338.939209 361.829315 337.675201 373.532776 317.656616 376.204559 370.419312 248.377563 301.054688 370.945374 342.251953 359.562744 329.575470 446.104614 348.898438 349.991119 256.472717 388.334625 330.925079 354.127319 360.791321 272.780579 305.745514 373.863922 484.093842 361.192688 306.574860 317.406860 363.627045 314.345947 374.400238 318.432800 375.210785 338.010651 289.133087 343.293884 273.943665 287.599976 320.353699 357.588989 416.785675 343.221649 317.619720 307.971436 318.084808 258.669098 297.568146 355.772308 348.808624 305.876770 360.929657 353.792725 348.134644 378.376373 432.486206 379.351227 284.999969 253.553574 296.736206 352.570923 300.716705 321.067474 245.058502 300.217712 278.287445 335.111938 355.391479 302.064728 331.023865 348.992554 294.332489 347.055389 305.069855 342.610107 396.201355 297.943207 268.696808 324.254669 354.230896 323.475128 328.946320 340.970154 246.111481 313.083527 381.977844 312.367218 350.185760 334.017242 242.804749 349.699249 358.867493 298.702026 340.571228 244.641006 287.273163 310.065704 285.740082 272.171021 381.932098 346.213593 345.867584 397.670227 311.431519 365.434265 337.651764 351.213135 362.965820 302.596710 317.774231 333.294250 266.589630 302.682220 368.345062 315.640015 394.913879 318.603912 242.600922 281.986176 364.851105 439.437561 329.996582 336.927429 270.401825 318.907501 329.246765 371.978943 354.779694 316.399139 376.881622 256.210541 305.694885 302.373413 291.055298 353.220734 374.137268 368.510468 329.230469 300.850922 327.495850 326.905090 281.326843 306.747650 360.062225 393.268402 256.257904 321.581024 341.841614 343.566589 324.315430 278.538879 347.882263 245.565399 238.427658 309.124176 321.988495 408.031219 349.200348 360.109589 426.973816 339.216034 363.391785 349.472595 305.721924 330.403839 354.068390 342.020264 218.732773 296.988251 295.223328 318.304810 299.257965 
/model.8/m/m.0/cv1/conv/Conv_param_0 103.681946 89.011986 75.794617 61.505394 103.587502 95.425476 88.701340 71.412125 105.782700 89.151474 128.019562 91.266953 113.426361 78.646996 94.339211 94.747658 121.990112 107.764931 74.487000 94.112755 76.627769 61.768059 103.336845 84.293037 111.626205 85.815254 95.585228 83.401611 108.831436 110.510094 92.069382 51.009838 99.296097 81.605415 105.538322 92.063019 76.616463 101.547874 78.031685 96.724174 58.650867 68.566734 105.803574 105.271606 133.096786 84.994286 85.934586 78.132851 98.236488 115.695923 76.871895 110.008667 55.627800 113.098030 65.451630 69.179527 109.682373 80.198212 116.363808 95.677559 86.630547 100.666283 104.735817 88.057770 95.871620 129.642899 102.793289 102.074020 117.357758 94.526100 83.875793 96.795784 73.309097 88.199806 104.377563 126.893097 116.999954 82.847702 115.352104 139.018600 106.134354 89.911583 77.354668 119.300964 102.356331 111.686554 108.485977 121.641846 104.810822 162.535202 77.230774 118.587402 86.924774 112.396271 91.563469 87.548607 73.900978 86.929039 67.584465 69.609581 62.478832 203.701126 65.770607 106.783318 96.328812 88.191116 89.221664 112.895874 66.005363 83.802528 93.923012 70.989845 94.116707 122.428047 119.327415 104.185394 44.543598 78.757774 107.004410 68.864021 63.840981 61.620533 75.090225 64.973488 94.407013 100.197433 80.516632 99.628670 71.894249 104.180611 113.351921 76.564125 91.328453 97.157387 84.528687 82.545563 132.621460 123.763443 108.653305 123.713364 79.104477 110.143555 69.275764 93.882172 124.841331 85.429039 98.726692 119.695984 101.668358 76.546494 94.426613 132.092117 80.237663 116.730392 123.769264 77.395752 119.880981 132.717056 85.479500 102.061462 90.829704 126.663841 94.213905 102.585327 93.390366 87.689583 52.190899 121.298500 99.327927 76.159904 74.111832 101.106995 105.485146 62.410015 59.376553 92.738403 89.466957 70.815735 78.054352 101.637314 67.136795 85.589294 37.450916 120.280739 84.779305 69.554977 104.735786 98.305634 54.267773 87.611221 133.374664 91.006599 71.549957 90.974251 116.239342 73.532448 66.696205 59.373230 130.047455 101.807907 101.107994 86.587624 100.123283 54.205650 91.770744 88.820465 72.259041 109.679657 102.740189 76.960594 78.342560 99.529022 69.125427 103.466484 118.800880 107.607109 113.141060 75.678368 90.437767 56.681267 98.457405 73.437904 99.262688 112.704002 121.673729 111.906143 72.737671 92.174644 66.876686 95.709854 124.275787 109.490685 104.935768 76.150337 105.806122 115.246719 77.637291 102.387978 57.735783 89.737885 97.648689 112.315514 114.883644 92.349510 85.119865 74.592659 65.885338 100.941444 73.476212 129.448959 95.005211 93.475090 105.303482 109.738297 86.822678 82.399620 
/model.8/m/m.0/cv2/conv/Conv_param_0 142.339218 108.193649 279.694061 245.418900 190.816772 241.456787 279.910797 266.429535 228.346588 201.292480 115.569130 202.462128 288.770935 269.994110 150.249222 254.523422 260.069916 246.585846 282.213623 164.082458 205.591095 200.787323 280.610748 281.777954 268.091095 207.769516 185.811462 312.532349 198.646927 163.509293 200.888855 105.574409 248.645020 263.011963 206.295761 231.184723 123.041191 196.368210 173.435944 367.366577 235.025238 216.086761 106.828712 264.062225 265.124298 245.223846 181.990479 287.224731 220.154770 265.266449 254.899704 104.884804 151.678375 206.636353 101.106277 256.882324 278.087494 309.632629 201.252243 233.545883 182.606094 198.997070 155.017258 271.092957 260.706696 271.579346 216.841446 179.081772 199.775879 259.823547 276.353088 247.059952 224.532242 156.621658 243.408188 214.313675 191.648422 178.826523 299.306274 142.605927 80.314651 282.483795 325.746307 208.953018 200.073700 158.153809 315.562683 169.260056 200.402328 179.138901 273.814331 228.551407 225.667160 204.679214 219.909592 248.945129 313.609833 192.470749 203.831375 262.137054 263.243835 226.970276 241.002365 238.093292 268.501038 297.790375 128.706635 87.891525 121.416962 129.307495 154.139114 194.471771 132.432281 216.415543 238.610519 120.485550 270.223877 231.500153 70.459671 224.116928 186.255753 213.243912 244.065598 172.795578 263.209808 160.733032 138.383255 187.402252 231.856369 68.087318 183.126587 257.751556 344.891968 80.878860 297.195557 252.831421 105.603165 197.800812 179.382965 145.876038 179.211182 279.603241 102.239861 249.716049 171.031113 283.964752 87.897438 257.361603 198.388657 184.706894 225.133240 231.260056 218.228943 264.590851 261.289520 257.640991 84.939194 289.431305 119.579987 194.460129 239.001358 303.099976 296.747986 175.149857 214.684540 103.905663 273.514069 291.392670 127.578995 230.690018 247.004623 119.953514 106.361717 195.121231 169.727814 292.248230 282.765991 281.190033 221.023880 153.190262 340.173492 259.605347 115.249321 289.795746 214.627579 161.151321 271.211334 182.069824 84.920227 152.564209 252.832199 74.986755 167.190750 165.979309 125.090439 144.620941 197.160980 155.670502 208.040817 242.706390 150.305145 117.196938 255.968140 183.491135 99.768295 257.722015 115.244431 263.411896 227.547577 197.384933 232.416046 292.183502 193.155853 210.727066 116.713654 190.801895 256.180237 249.767700 203.671127 202.067581 292.886871 263.644623 238.934830 237.125854 83.698380 220.828644 315.019409 247.041794 240.170456 204.655380 277.549164 279.503784 166.379654 217.833603 83.654869 197.578476 153.342041 315.598999 336.018616 87.770653 248.120895 201.966080 203.013397 257.463959 172.752121 275.101624 274.332642 285.789062 193.789352 191.548965 113.285736 117.174515 289.153229 211.756958 229.494003 256.593170 
/model.8/cv3/conv/Conv_param_0 612.705872 306.113678 567.638123 435.282501 442.905029 187.297073 516.844543 420.220062 715.513306 597.449890 637.394104 776.054688 575.677368 312.678711 522.315491 469.703033 418.469604 415.058594 660.967773 397.518402 507.976257 596.677307 654.796997 542.467346 565.964294 637.736206 469.261078 509.329987 626.393738 915.349243 669.577209 568.806763 570.016602 485.410370 547.058594 582.025574 558.458862 589.638367 627.766907 386.376343 721.781189 677.725891 548.659973 600.856567 622.862915 538.401245 553.460693 596.323853 349.180634 727.375488 684.198059 536.004578 643.037659 508.114624 583.701965 596.028625 637.055237 401.095581 343.652283 683.939026 605.071655 621.763550 502.187042 632.760925 478.945282 552.675293 563.165039 354.358765 583.437073 491.838104 450.942139 320.726959 254.542892 593.343567 495.997253 656.869263 644.808716 537.821289 616.841614 544.223206 473.632935 774.686829 329.025299 555.831665 394.153412 581.755188 739.934326 645.721313 472.956299 664.048645 470.466919 675.144409 444.787628 591.253784 389.077271 387.273560 548.674744 461.020477 699.074341 614.737976 462.275635 482.343475 583.991638 502.884125 510.163361 528.253845 609.196411 495.848328 639.557007 603.507874 501.700562 665.419678 459.642822 540.407532 471.340302 391.771881 636.453369 462.899109 550.277039 679.292786 718.193481 786.716553 541.367859 386.265015 474.316833 413.616028 377.530304 603.769714 613.699951 518.235535 557.870056 567.688232 575.304199 543.373962 492.099396 699.819641 642.969788 651.198730 464.163574 303.676422 632.778687 407.448792 678.573730 547.189941 596.285400 590.481018 660.383667 304.501221 579.616333 684.479980 713.738342 637.833496 525.115967 351.250854 516.625916 708.733704 604.892578 643.990356 689.432007 649.244141 750.145813 511.492218 478.819824 614.722046 657.595947 561.760315 537.641907 479.865540 586.273804 563.004883 328.837585 541.295227 675.402222 357.592926 452.070221 598.534851 616.523621 658.011108 352.561462 306.149261 467.787567 310.831116 480.679688 405.688141 621.184326 568.880859 542.224243 583.197205 588.248108 543.074219 623.239685 394.175507 466.138031 631.393066 509.755676 600.430237 372.120117 540.152161 516.486511 566.562988 516.065430 572.833191 518.442566 328.237183 605.497925 567.164062 425.028198 487.313843 585.669312 470.898560 558.154724 566.111877 481.392029 559.655334 675.596313 569.482239 751.646545 362.283508 442.569489 581.809570 405.122681 545.303467 626.983032 687.419861 617.935242 257.889374 495.481781 448.041107 380.678894 569.083984 493.089722 579.887268 472.821411 658.372803 374.741821 439.314941 725.084045 493.049255 705.294189 654.394348 316.795135 650.018494 777.425842 506.875366 528.498718 586.986206 602.037659 608.795471 372.545898 652.997498 551.914368 705.599915 548.492065 697.742615 529.497986 472.789246 804.817444 528.075806 408.912628 481.389771 455.722015 687.597351 346.139679 707.461792 562.743958 245.916458 464.388000 593.893372 394.354004 501.218262 489.147095 499.407593 452.293732 442.014130 411.155853 554.071777 617.021118 645.331787 660.867493 353.409821 407.623993 438.423126 664.758789 544.770752 835.413757 604.762390 570.161072 627.771851 527.226501 599.128113 759.419922 554.362183 353.654297 472.675537 444.019073 605.878784 548.190125 369.939117 556.166199 601.175964 565.959229 518.512573 686.170654 424.654022 675.429260 393.264526 578.304260 435.938934 511.135193 471.439728 498.562622 578.648682 646.044067 738.304260 270.028992 529.638550 571.416687 532.548096 614.565247 600.845093 516.859375 726.521301 574.626465 582.867065 468.643005 500.809845 406.595551 600.708069 606.788879 523.093323 493.184662 406.598663 419.909943 392.545258 677.080994 603.180481 263.253906 689.895508 572.966919 266.593170 638.224121 678.789734 546.589600 682.916260 548.614014 564.399048 561.323120 612.292114 691.067139 489.620514 543.656128 517.538513 595.380798 717.953186 667.037903 494.825012 671.408936 621.609375 523.012939 661.087219 518.471252 562.175293 673.274109 577.157593 762.696228 391.359680 369.178345 501.923065 567.598145 501.857971 594.919983 376.131989 425.749207 618.767578 537.256592 529.349426 500.302551 729.098694 491.293152 511.626556 613.410645 372.544678 553.253906 476.055115 690.192322 483.200653 418.271454 471.091888 468.963776 534.255920 556.487427 461.193451 476.458862 497.740356 637.800354 503.634094 378.757843 545.004517 527.998291 431.447601 571.176147 579.925659 634.930786 444.165649 452.972717 613.536194 638.332825 427.469971 569.508118 424.395508 633.682800 625.291016 532.300598 639.660950 499.542755 687.260986 561.780151 711.336060 428.409882 408.023865 682.765015 519.285828 575.667664 578.575928 555.559753 725.148071 357.110565 423.477875 526.154297 597.486572 577.887695 655.551453 669.661926 602.060242 509.156128 654.740417 410.974915 590.386597 506.366913 252.594254 607.807678 470.701202 279.445892 594.621094 404.640961 631.142578 421.090424 568.671326 589.161987 475.766907 496.603729 440.069794 753.145203 637.649292 557.642456 464.635681 401.301575 610.081421 559.682800 670.834167 554.639832 725.719482 443.005920 772.209900 595.746643 584.499329 603.506165 631.859009 509.033508 300.094025 549.516907 527.662537 475.187164 558.234131 430.316254 631.483582 643.569458 363.071350 571.464661 526.613892 391.254608 638.389465 374.825256 638.156860 527.285583 601.739685 493.786224 393.459869 601.413452 682.046814 607.177673 577.475037 603.754822 328.491791 687.005676 591.624756 705.055420 621.311401 558.496094 704.698914 728.700867 361.513184 554.824463 622.566284 699.266663 524.038513 714.143433 553.133728 499.271362 389.197784 474.710541 214.725647 
/model.9/cv1/conv/Conv_param_0 421.704895 715.992432 602.769165 665.390381 756.425842 614.078003 658.617432 600.989136 598.426453 633.612732 711.722229 682.047913 561.633789 781.591919 645.753418 637.648132 874.180603 728.372925 337.635468 750.448181 803.403625 683.839111 737.246216 254.184509 594.108215 699.988098 708.390320 768.172180 864.055786 661.779602 667.430359 305.621948 231.132721 241.033066 607.536743 434.007050 776.220215 630.442017 564.727600 652.257629 646.717773 596.164368 250.925934 677.163147 579.005981 587.874634 588.426880 655.804810 535.426819 572.265686 409.479645 449.293213 760.818787 687.232666 361.393402 625.945618 585.231323 488.794037 722.334961 430.140991 583.545471 297.724121 650.580444 387.262177 869.365784 673.738281 670.110901 561.248840 615.385681 368.712128 457.980896 656.624878 646.768738 717.918945 226.581177 677.898682 717.106934 635.388428 605.682312 714.687317 540.670288 769.113464 701.745239 757.856262 844.253052 729.168518 540.746277 432.045715 440.855560 660.063416 558.229126 562.588318 620.004456 640.676758 719.130432 737.887939 599.811340 614.019531 777.236450 247.844193 654.074646 678.223145 310.515137 394.586884 837.056152 742.941895 669.245911 824.092163 757.551025 774.803650 589.408752 682.258057 738.859131 565.591797 697.072632 780.046448 513.442322 376.574066 549.259705 748.936584 695.018921 481.136749 642.127197 792.521301 516.380310 624.736938 655.660217 794.763977 685.977051 339.150665 674.498840 590.556824 687.345398 444.093506 464.156647 779.378540 657.178528 727.574707 352.257111 529.043274 484.760651 615.481689 711.588440 734.185486 585.403503 681.218872 605.058350 615.890625 591.190002 533.965027 622.279724 670.614075 267.931824 617.048706 632.373474 715.126526 570.494019 704.885376 532.595642 419.719421 536.140625 639.379028 939.566956 735.694031 652.595947 712.922729 732.303528 504.429535 778.009705 227.522339 774.373352 415.252899 551.668762 547.485901 551.969727 634.258057 587.595398 695.321655 552.601318 766.483337 618.600647 737.809387 726.559509 744.307495 251.484497 597.538818 547.748352 687.858887 277.471130 648.567993 545.780884 564.088989 643.160583 506.399170 695.395142 725.800659 365.256775 518.686340 434.317474 760.253479 500.627533 558.170898 734.230225 536.170471 593.307800 737.265137 683.137817 619.179504 683.923889 560.592712 304.520569 608.505615 285.997131 570.954956 707.433289 370.829620 294.499512 575.308716 646.385193 710.449646 659.258728 363.020569 766.261169 588.930115 612.085449 302.614868 352.711304 730.639771 711.044983 642.368591 862.898254 622.917480 612.188477 424.231812 719.070068 659.611816 734.958008 586.115601 711.289062 479.438812 448.171906 716.791016 767.765930 700.363525 659.201111 587.934692 750.263916 716.479858 554.384460 722.295166 639.155701 568.348083 742.990967 506.760590 235.060410 707.732422 
/model.9/cv2/conv/Conv_param_0 1233.817139 1111.940430 917.323975 1298.785156 220.147705 369.952301 256.400269 803.684998 286.389954 806.155518 1009.256531 596.454712 867.748718 353.002136 862.851624 635.976746 463.580719 1042.958252 1001.087402 938.065735 1119.532715 926.461731 1037.855103 882.564758 336.591980 1045.301636 806.217896 1116.137451 1235.722046 971.000183 781.655884 1305.016602 958.107178 1424.302612 1344.662598 716.056458 1275.827148 686.846252 759.171204 734.121155 436.604218 993.922852 1080.029297 975.599792 728.494202 963.747375 282.909882 869.451416 1091.458008 1115.475586 1346.529175 721.200500 871.048523 395.428802 667.681335 611.361511 1070.089355 893.178650 517.663818 1164.769897 1009.483154 834.898865 1216.651855 582.191956 724.056946 964.958679 1007.501038 1012.462158 614.657471 1116.945923 296.817749 1037.119751 763.230530 886.963928 1429.525879 1131.523438 1765.771484 1108.098145 1051.469727 644.442383 759.812866 1178.192505 1151.018311 708.197510 1259.531372 973.816345 1504.482422 1145.862915 1274.489990 1330.445068 962.579773 955.419373 929.996033 757.043457 608.499146 557.359253 815.566284 886.269348 1080.976440 540.398010 1188.213135 843.242676 1075.599121 1291.333374 698.745300 914.828369 759.601318 1211.793091 1099.396606 573.044617 1483.687500 967.695007 951.293152 1102.371948 1192.453369 723.652710 628.095886 1392.047852 1013.737671 643.836182 560.298340 982.545837 925.352539 770.901001 1062.917114 671.765015 1035.226562 1062.871582 1045.528442 1078.217529 850.832520 828.637024 1017.769958 806.326721 488.118774 587.759399 1167.419556 488.626617 1027.912842 1349.953613 1084.064087 543.972351 754.684631 709.053833 304.916504 863.030212 1188.488281 1359.578247 522.113464 696.004211 981.195496 1009.787537 1038.841675 1040.109009 378.231354 1099.772705 1282.792236 1432.764771 970.171753 997.353271 541.488892 949.493286 982.096863 856.878357 694.457397 1046.482544 1267.438843 1150.630737 293.557190 1188.838257 410.268707 461.853333 929.695496 354.425049 618.641357 586.361206 479.835175 838.160339 1041.359985 776.784119 1120.222534 851.429077 1245.061523 1089.534790 599.135986 627.446350 1213.908813 857.634888 799.319214 1082.668213 1522.312012 1113.369995 1413.991943 880.217896 628.842346 771.498657 578.167603 1322.427246 753.193359 1182.165771 1012.846924 890.728760 1397.536987 837.718933 881.136841 1023.534851 1024.875488 834.264343 1513.475586 902.620422 1106.480957 1165.334839 476.811188 774.703125 1477.690552 1087.501465 691.427551 650.109741 272.708099 933.049377 974.245789 1263.787354 1162.608032 332.886780 1412.679565 578.081482 975.744263 1000.786133 776.869934 838.257568 1040.180542 1326.828735 1178.030884 1143.129272 1031.643066 584.570251 1008.143677 576.916504 400.734833 1208.747559 1009.385681 1514.954590 638.689575 797.775818 825.977478 975.068420 982.938477 851.013000 942.543518 1428.960449 390.732697 653.180542 907.779846 1572.250122 749.180908 784.896729 752.957764 1495.191895 365.504852 755.939453 878.256775 606.549011 905.190125 818.078430 659.641113 544.143494 463.985657 705.280518 1129.474121 786.269165 928.925598 1192.395630 546.083984 938.158997 707.349365 1395.967285 694.142456 727.691467 473.987274 1226.219360 1176.612671 1155.990112 449.342194 849.684509 994.062256 566.579163 448.100098 367.396851 829.082886 933.647766 797.148621 850.181091 1445.365479 1422.392700 1156.915283 1173.232422 792.813965 1115.139404 895.126892 1024.299438 576.865906 564.815796 1106.373169 1282.200562 966.918396 1041.197266 744.241699 998.948303 642.050720 1380.822876 1425.804199 1483.809448 797.449524 1004.078125 1050.697388 924.516113 622.480774 570.861267 486.017822 1316.290771 784.758545 1097.346558 1463.553345 1183.160889 1342.847412 941.364563 1474.453735 1153.385010 1538.889404 749.113281 841.900574 948.080505 867.128418 935.526733 323.759552 823.981567 1106.739746 727.110291 1295.415771 962.617065 902.723267 541.182556 1055.038940 1301.785156 397.233856 780.995300 720.123596 1137.681274 1235.363281 1268.537231 724.331909 1001.929077 1410.301514 778.442078 328.022888 1053.121948 237.233704 607.819641 590.496338 853.946045 1286.733032 902.378906 1160.675171 844.684021 969.202759 971.747131 305.295532 664.023254 810.707092 1450.652710 953.869507 1326.179810 710.048401 651.742676 1148.442383 940.659058 766.752991 1014.484009 420.626465 725.868835 1486.340210 1026.425049 771.562317 824.279663 729.465210 1164.042847 1257.746338 541.451477 1071.465210 1147.457275 981.704468 457.008759 1203.203125 1492.118774 541.834290 237.600449 934.274597 1432.005493 562.653503 1245.307251 666.939209 971.114563 978.383545 910.134155 497.736572 1036.227661 1071.593262 456.986481 916.072083 783.976929 511.832642 673.851257 1107.080444 1444.832153 413.292389 1126.526001 898.120361 1362.073486 1190.512207 1534.365967 1239.515015 721.298340 1074.939819 993.842346 980.634583 870.613647 846.355347 496.721771 819.171814 987.277222 1252.721558 1114.479370 355.241089 1289.233032 443.010223 529.116333 1206.454346 1121.441772 966.577515 1130.913208 1007.531250 245.963272 1207.926270 956.947266 920.983276 634.702820 613.154785 1048.939087 809.475952 399.642975 1157.056763 958.074219 1367.056519 569.328186 972.479126 1795.971069 1622.737549 1059.631592 945.688293 783.343994 1873.568848 1283.396362 718.012512 496.611359 868.455566 1016.094604 878.020142 814.227966 829.258179 424.757629 337.020111 1081.279175 804.038879 1015.409119 1300.204590 1318.255249 338.345490 815.326050 1047.878906 1280.705933 539.929260 1026.298950 587.151733 1038.125977 551.350708 984.786072 884.820374 723.493774 1383.987793 501.521790 861.670471 1415.858521 1425.921509 517.473755 493.881653 1166.149780 1371.174316 493.624176 820.541626 1135.794556 1302.672852 1118.342529 888.897461 1375.656982 930.242126 1021.424805 1091.745483 565.757507 525.285583 1050.361938 953.563416 820.544861 
/model.10/conv/Conv_param_0 253.589828 399.587372 270.885193 196.538361 380.673401 304.020813 238.794357 342.390747 199.454727 398.421600 187.399918 196.372757 197.407425 350.418335 280.856812 359.674591 351.982239 246.887314 246.253586 137.886276 190.241745 263.450775 253.223145 306.339203 205.696228 314.732300 281.855865 260.334106 356.453156 436.485931 241.222076 272.900391 257.551025 234.456299 280.846497 328.769928 237.785446 256.548004 357.943634 316.651093 304.629761 300.541870 350.225372 311.409027 232.537781 242.398361 179.644821 390.986053 228.635864 171.715652 189.698639 266.061279 250.241058 356.725891 272.941681 189.548416 430.880280 188.706329 220.453232 279.555878 312.425415 325.286469 366.979156 286.969727 360.682007 124.617538 350.546478 243.487045 381.658539 267.364075 275.080780 237.408661 265.506500 395.312622 457.182526 236.937561 248.200531 480.270233 181.674927 266.074402 121.454651 332.680756 283.165985 204.234314 302.566925 311.007874 256.620453 224.734116 252.473724 276.106232 350.205597 433.971375 241.101318 239.745346 369.375977 230.983780 201.060181 266.440704 499.628815 401.709503 322.750000 197.584915 353.293365 310.769836 265.854736 347.641602 238.043655 143.228897 171.818085 221.177032 149.734573 256.055145 118.835014 371.609344 285.611359 287.595490 306.948944 241.483109 237.002228 285.310791 251.869324 296.632965 254.923676 134.313919 202.244476 421.027557 193.425476 244.518707 363.992615 137.950562 183.657516 193.025909 162.366104 261.041077 180.616272 144.464645 194.697098 237.519562 171.313690 268.637634 144.690140 297.461334 352.972626 186.299561 183.597488 191.761353 408.303833 203.538254 356.786682 245.793854 377.885162 181.569641 354.074280 182.592499 245.998260 217.749939 123.881401 224.460526 387.943085 156.958725 251.307816 287.592957 253.230759 389.516357 303.912659 285.781281 485.607513 230.776093 390.640137 285.816833 253.828781 363.908844 388.622620 307.481354 241.126251 341.211487 194.291946 237.810150 411.708588 322.725708 410.373260 252.533463 322.935608 425.425446 336.986450 292.225983 267.638123 429.333679 232.673965 337.055023 226.756958 236.987595 350.620178 358.014252 244.422455 177.547546 176.611359 211.941284 287.739929 269.095520 411.847626 251.930481 239.196289 277.094757 197.419525 146.974792 207.089371 378.361267 370.131134 306.923889 218.360641 253.314774 252.195633 346.034882 267.119843 122.887245 310.580414 285.445160 330.132141 295.289886 358.292694 261.910522 250.026443 305.418030 378.767853 382.784332 257.232208 316.467072 372.844055 207.143997 408.994690 162.904755 300.239319 215.370331 238.748383 453.516327 311.924561 324.366516 274.443817 215.649475 380.643555 306.173920 217.918152 409.785736 91.435905 276.190002 129.896011 300.090088 77.212242 325.429352 371.076385 398.199829 279.081696 316.916260 501.563477 317.165619 
/model.13/cv1/conv/Conv_param_0 463.487701 407.061951 504.034821 343.141296 524.126038 459.663330 477.593719 384.081024 395.230255 619.831360 444.508728 520.046021 254.415802 257.896851 393.643799 371.566498 298.464386 276.017578 422.242401 255.462372 475.203735 387.965057 464.133881 520.577820 493.763794 439.422821 386.482849 339.302551 522.260620 287.002716 324.967041 355.830963 460.966858 440.648315 421.906830 459.459503 614.772034 532.855164 499.489075 596.277588 339.681366 484.930267 389.116791 159.437500 416.686157 537.008606 420.310394 370.031250 413.726257 138.127991 327.896576 392.241913 393.303009 584.830872 424.594910 683.347778 314.043152 337.048157 359.806946 328.815155 390.034180 531.617126 207.221725 514.663879 483.785980 337.432068 436.850769 569.764404 310.537140 412.852936 314.147583 420.791260 421.254089 364.051971 367.229462 389.574921 513.699890 346.251587 512.223572 427.848907 414.872589 527.301147 427.600067 432.599121 556.508545 400.291992 386.152771 356.394928 460.688721 323.288788 392.184021 393.247467 526.490540 478.458527 426.532043 549.516968 327.487946 508.252258 264.283386 212.996323 372.271851 415.570862 274.557953 424.598053 221.104904 462.410919 787.069458 343.612732 310.270630 269.179138 285.931335 406.462341 266.741364 582.908630 245.153259 431.218536 378.152985 290.362549 492.862610 460.128235 450.903992 624.888367 285.494110 278.465942 283.655914 476.706299 217.765106 472.871368 
/model.13/cv2/conv/Conv_param_0 446.889435 282.346710 409.531250 482.177307 412.190704 359.118134 344.217773 429.640045 461.131104 488.666809 418.933533 367.908691 476.369171 389.047302 339.073029 382.337189 532.743408 414.927063 277.710999 340.822449 348.777740 325.433289 459.226349 410.218323 378.390076 758.645996 589.084656 434.864380 366.457062 249.943161 488.028259 341.351929 437.266083 491.444550 665.845032 365.681091 289.647156 454.955200 316.977448 277.542694 563.517639 646.115845 318.908936 699.276367 406.756927 284.656067 441.719177 332.710999 171.562378 623.437683 308.549866 238.144302 299.496765 265.741882 306.145172 377.743469 417.531799 409.993164 424.023773 318.781006 315.186035 420.525604 462.461060 489.081024 425.449738 395.679474 269.857941 297.791229 323.137665 318.697845 417.496063 342.105225 344.810883 302.215912 372.639465 280.870514 523.460388 413.520050 235.113632 361.290619 357.138519 340.810455 393.362030 413.847168 424.648804 451.604156 499.639984 367.741608 445.911682 655.722290 478.056793 389.954987 338.493011 312.291443 343.858917 222.248581 399.691162 342.420502 339.426117 418.788910 382.849243 356.242249 400.323639 368.984528 453.609436 281.056580 379.369598 378.652649 291.211639 325.973328 441.972687 462.297577 458.202850 384.629608 627.218750 334.280334 401.085968 394.679474 418.235352 256.714996 321.414978 418.146118 465.992462 387.512512 481.288300 398.600922 424.783508 439.903381 
/model.13/m/m.0/cv1/conv/Conv_param_0 245.441650 173.637787 149.419952 104.759354 221.552414 209.928497 148.068649 168.873688 153.515915 277.555237 152.950546 162.896973 157.637421 219.382355 196.907471 204.696228 221.453186 156.342789 213.932144 182.676483 243.247284 188.176239 105.714767 136.708191 153.551468 175.703384 281.722900 137.867111 137.136490 110.287300 187.714264 120.440819 124.751999 73.306358 222.987228 151.026154 114.160889 164.654984 127.993408 157.305496 224.773315 129.042526 190.464188 176.463501 204.291641 147.867020 183.108643 164.272583 169.477585 177.466721 163.523468 242.301895 294.730591 140.042480 171.129486 229.165359 192.043030 163.040695 153.830338 208.073837 147.533112 119.944534 194.483551 158.480621 145.786819 182.852707 162.119110 155.234375 118.956421 120.799484 184.383041 178.079559 162.898132 165.341797 187.373093 103.416283 186.255737 185.026535 210.946701 161.893295 124.951874 134.877594 123.543510 188.960312 118.722534 199.145187 213.055496 154.818268 164.224487 205.335693 227.164200 170.878021 164.411392 186.934402 83.572304 170.776245 168.133270 200.151535 204.182877 242.783615 217.065491 157.503220 154.179169 149.913773 143.615265 183.869263 287.792786 191.511871 198.622055 132.406326 128.915314 160.013306 184.191223 200.307541 229.055878 156.056808 160.802979 173.171432 111.441032 215.611069 172.920670 158.272186 282.093353 178.022491 158.239426 113.715767 137.434204 219.567841 
/model.13/m/m.0/cv2/conv/Conv_param_0 152.306488 88.910461 125.654968 71.942032 48.584087 157.066879 84.316513 132.280212 100.094482 66.196251 106.164154 100.459412 130.437576 195.441940 90.803436 219.059616 121.635193 103.083893 138.092148 67.774681 80.907104 145.211090 172.982101 80.573364 153.524704 134.026810 52.622002 143.948990 78.689201 95.917694 108.457573 131.374710 100.042023 108.041183 55.412418 238.357269 217.797333 117.706749 114.001572 161.997116 42.683365 120.648270 173.878693 159.543045 67.173920 188.037796 95.538979 33.263348 101.065567 99.900337 71.073364 121.219398 93.762215 299.076416 88.754372 89.660919 113.923325 80.542534 45.313740 75.683990 114.182426 54.709671 94.342354 210.390396 148.174759 132.322372 148.574539 106.685387 96.911674 111.604485 121.913582 66.590462 190.480591 98.459618 113.525253 89.670586 84.505051 68.923462 55.867203 121.334381 57.530041 97.634163 90.792480 43.502388 120.684837 109.184448 90.479279 64.624039 109.547531 114.242386 85.073296 134.680557 90.076195 122.762764 152.669388 142.435272 110.167999 102.351524 57.032860 160.204346 133.577087 104.437553 129.529037 116.578613 207.240753 154.843781 163.933029 101.459038 175.228485 264.192505 97.852661 91.290634 120.868782 147.849014 116.818733 45.411072 125.738579 134.104111 134.845093 84.944450 99.615593 37.917389 91.970383 79.330025 124.735756 224.214569 113.200371 85.736885 
/model.13/cv3/conv/Conv_param_0 287.826752 248.160812 171.084900 149.132385 267.182739 251.376831 279.845795 224.676498 231.729156 218.352158 106.473373 255.104004 234.209946 269.845154 142.756317 362.050110 242.714462 268.611206 287.035645 340.995819 195.206161 167.257690 186.001801 270.603180 346.748047 267.388458 378.233826 205.100540 217.667862 187.643738 217.898697 229.268631 165.563492 279.033539 261.498383 148.929779 240.622940 249.731293 228.025848 299.451782 142.167801 196.138000 318.429840 230.740753 237.799805 245.947922 257.417755 212.427765 271.392151 204.410812 178.382462 155.000854 245.688873 236.242050 223.299301 172.870438 139.901031 182.206146 334.164917 224.551682 336.123016 232.085754 236.895401 201.732620 262.483215 304.310242 197.492096 279.435425 198.416748 178.840698 432.651611 268.272125 282.912018 400.778015 358.128235 318.216431 290.252472 206.637436 133.863754 314.071350 142.494919 242.489532 213.797516 251.523376 232.968811 213.103165 297.288727 251.532379 172.697586 228.672363 208.729218 328.857452 179.816071 237.525620 187.235092 128.059174 204.978119 270.468628 402.500549 383.325745 371.428680 188.220261 309.749573 213.786942 264.015533 244.072556 283.897217 117.417747 163.725922 267.638519 235.271057 159.500198 137.267044 283.805511 256.762299 179.449081 290.355652 154.793640 230.271515 231.602051 234.576706 200.741730 155.727203 198.959534 160.195160 152.387115 186.372742 301.687622 157.228561 214.798706 235.780045 214.630936 316.623810 245.031708 208.621185 116.017685 212.085709 172.276398 268.515442 220.305054 188.981064 262.033905 152.996552 314.792603 246.110352 306.291229 165.539261 241.931030 182.584763 180.882385 182.327667 245.611404 309.998444 274.724518 246.925156 383.497528 195.570114 357.527588 268.245758 185.976776 211.763794 358.181091 237.697464 199.312027 251.939667 277.510315 193.253326 220.932556 273.087433 232.353867 262.120148 231.306213 323.643311 252.912598 370.672577 157.466293 249.438232 148.154160 347.197479 292.182190 143.775726 297.033691 257.713226 252.754471 345.156036 238.492432 300.021667 287.913849 184.785141 231.623459 189.921722 173.932037 213.600037 272.110687 376.351105 236.336517 191.530258 347.624908 183.963440 289.129028 264.804749 237.335861 278.309631 204.828903 260.152496 226.898773 128.450989 254.748428 239.565292 259.401154 189.934219 329.867065 198.987717 249.999466 288.676300 245.712067 281.119415 249.015625 155.579224 287.805237 216.433273 166.688065 145.663361 162.967911 233.684296 196.966400 260.715973 239.143600 209.088806 248.357498 179.898010 156.463776 163.520218 311.577454 267.630219 202.228561 386.261169 171.824738 164.435608 132.730942 204.757233 296.591858 148.374893 273.442017 146.404099 307.756012 184.324554 251.242493 365.872009 259.028107 252.096390 187.796951 260.784363 102.721260 237.903305 305.261810 
/model.14/conv/Conv_param_0 260.949005 236.146622 399.607941 276.647827 336.915253 595.679382 272.813385 642.601440 269.191650 264.226562 365.989044 343.393036 471.611328 301.803589 356.726135 225.278610 206.550156 280.661011 361.067413 399.084351 373.493439 501.787964 322.177155 382.729279 485.020966 260.961182 235.757278 456.786621 263.317902 375.150482 602.700928 525.927185 268.978333 242.505875 285.780182 312.661255 311.996185 275.802612 508.323120 364.509094 401.446045 370.374298 268.029816 239.474274 214.705566 300.560852 784.662109 391.018250 234.435944 314.479645 311.852448 439.124390 299.677460 440.263947 263.431946 221.576538 266.544281 315.519623 392.939728 397.974396 243.133163 576.688293 368.174164 415.981720 197.937317 402.051575 368.719513 376.343109 308.271332 269.936768 340.064117 321.053101 237.780899 534.705688 237.345093 217.754150 522.930664 389.063568 264.652863 248.972122 291.894440 319.505463 322.798920 337.953400 384.988403 225.173676 256.121094 402.401398 303.653076 398.701508 226.722153 351.749237 275.083435 240.946671 345.327118 307.389221 227.918976 307.687683 405.641113 278.581512 218.213348 194.081879 292.921906 492.789093 498.472168 412.052063 450.291565 279.394775 468.882538 471.140869 279.969330 457.039642 357.179016 357.495972 478.545288 349.508453 443.397369 394.123688 444.859589 588.215698 312.103424 439.139069 459.483093 412.107391 377.020477 312.341919 292.106323 457.476654 
/model.17/cv1/conv/Conv_param_0 279.049988 686.360962 682.188782 290.318726 271.989807 941.565247 302.885559 212.650482 257.359283 511.702148 324.534424 445.673431 426.937042 360.977783 231.574097 423.684296 431.411560 509.871613 182.676834 165.276794 419.683228 367.666382 1336.988770 409.407135 384.723328 228.500992 908.538147 436.646515 427.333191 553.923218 458.931335 718.514648 913.142273 465.219482 524.961731 335.973053 360.788605 293.245605 500.341949 539.080627 453.018219 505.886749 704.802246 739.030762 598.027039 514.802612 306.807526 293.604187 245.528305 523.013306 438.454620 725.031799 423.603088 371.671570 259.987762 404.682373 775.745911 281.330200 387.638489 290.102753 393.231323 223.853500 677.714172 425.738434 
/model.17/cv2/conv/Conv_param_0 367.422089 308.228668 243.220123 270.229095 191.036194 130.518936 217.769302 255.210144 165.285172 175.691498 257.927826 239.969254 269.141266 233.186722 280.714264 184.417175 277.872559 274.652283 299.622742 246.031525 696.832520 207.212143 376.486664 299.126495 266.797577 345.088318 259.637726 140.020203 258.465485 268.338135 248.364532 86.752312 490.917206 248.583344 234.579483 263.644196 305.736328 235.350189 165.039093 241.144333 279.508850 261.755646 239.396530 514.092773 231.590164 155.657288 371.661072 295.050385 277.142365 195.709442 300.054108 264.729889 225.458542 315.974609 453.755890 227.600342 276.368439 91.569099 275.433685 211.179108 297.433136 191.287399 182.829102 210.522171 
/model.17/m/m.0/cv1/conv/Conv_param_0 89.453194 114.364105 73.731613 98.369812 83.725937 110.169029 72.776367 95.254059 93.225220 165.228867 150.377747 430.833923 214.898621 69.568649 107.129768 110.283775 134.352448 148.973511 115.972862 86.139458 50.854485 140.970474 112.467407 159.651428 362.171661 80.209732 55.957954 191.232025 108.850327 105.536224 95.635506 99.803764 128.272034 89.895088 227.651398 134.204071 86.740753 157.655014 108.885811 73.683174 49.818016 88.096413 92.453064 79.527245 72.282860 75.844574 156.861771 85.759560 106.396980 94.457527 103.079865 96.962837 148.156479 77.471581 75.727707 157.031433 85.417015 83.314201 145.556763 92.289177 98.262794 109.902985 98.217926 95.644920 
/model.17/m/m.0/cv2/conv/Conv_param_0 36.016087 42.193554 47.605461 36.685936 85.291672 71.659416 21.889605 49.809483 39.217762 44.823605 23.885815 48.077957 53.859726 39.815754 68.496872 33.749058 93.754463 48.557022 94.172653 27.215136 52.219315 34.744289 32.429592 92.862015 24.095108 55.232563 50.031467 21.882011 58.012184 38.971039 54.790958 19.532057 65.183296 144.967148 59.739990 73.271904 70.916145 38.670078 20.691923 97.957687 41.046566 33.404774 51.820820 40.325363 19.841562 61.064083 27.931772 46.042538 79.770836 46.019646 51.917084 56.904694 144.637894 50.567345 76.868309 32.710361 54.057243 34.620220 51.119862 43.220413 48.760197 46.024963 40.111420 34.145550 
/model.17/cv3/conv/Conv_param_0 200.874237 62.218678 70.074104 61.001965 133.501129 75.385979 64.135773 63.278469 190.994904 78.132248 80.730881 79.115685 67.020332 91.935791 66.733345 63.808010 90.730255 219.342468 94.703308 61.775398 224.899948 84.331146 114.220123 88.097466 41.999268 71.724754 57.328777 81.330612 112.558464 90.542030 44.065697 60.532303 40.050209 79.271133 37.682217 197.384628 46.800072 220.747330 57.130573 183.675354 54.390667 70.848969 90.453056 108.186073 199.109634 180.560440 84.432190 60.639507 73.774231 223.585159 62.555801 122.880676 87.875786 65.157799 68.518990 125.479187 60.457592 118.566582 71.186783 86.363495 91.641296 44.078381 90.439400 66.329185 58.503006 75.339043 111.011826 113.882088 88.451050 96.758804 50.622105 95.587891 108.790779 78.424850 141.407227 51.225491 85.627495 185.766312 128.118805 123.190880 67.096336 102.861259 67.712471 77.579544 97.836189 228.832031 117.492714 57.908031 151.139679 69.590530 102.220215 107.479675 83.387878 105.148857 113.967911 77.217285 127.904732 81.263092 78.195107 80.091423 40.305099 122.974251 72.539627 64.933945 90.360886 93.128929 70.722313 81.665092 77.965462 57.677109 220.475632 328.705017 85.061279 81.555511 85.612862 50.780060 63.906994 73.478561 74.481361 95.710548 97.326553 123.029816 74.957703 172.166870 84.571800 77.131447 90.449226 75.454758 
/model.18/conv/Conv_param_0 2554.156738 1087.624023 1243.074707 958.180054 4115.820312 822.307312 1492.487671 1386.394897 1235.889526 691.029236 921.393738 3333.358398 3123.221924 946.489502 1107.257446 1735.957764 1299.351929 1997.216797 831.024109 971.994629 1067.535767 528.855103 2402.133545 4776.364746 1005.717224 3498.112549 2768.766846 2277.686279 1297.192627 723.946106 4244.176758 2402.326172 1031.877930 1366.922363 807.013489 793.137939 1041.556641 4591.953125 1366.889404 587.204529 1280.735840 1146.876221 1894.419922 825.754822 579.268921 2260.107422 4561.962891 1236.113647 2218.618896 5096.095703 790.533997 4523.047852 879.217834 1011.363342 6065.719727 589.066528 5088.971680 4511.124512 1254.831299 1089.930908 876.412598 859.321655 2738.538574 3490.149414 1273.788452 867.283142 551.692871 978.552063 1761.684937 1445.881348 1159.213257 765.087952 786.651794 1641.540894 722.331543 592.653198 1397.121216 2752.749268 1118.023438 739.717957 857.953613 780.114258 3846.779053 1322.969360 3371.114258 982.320923 3494.868652 1989.543701 3840.315186 2932.519287 5072.793945 576.932739 1406.449219 4397.835938 2003.493042 2816.274658 1145.255981 1971.708740 1185.831787 568.388062 2919.947266 797.319641 4006.940918 1042.944702 3107.471924 3626.408447 2980.779785 1073.953247 947.930664 4279.691406 6723.275391 3439.520264 1274.692993 2519.317383 4870.714844 1756.276733 2332.490723 2274.917480 949.336609 1732.743774 616.998474 1075.045898 1098.040894 2213.877686 787.502747 1529.494873 1934.118408 774.943237 
/model.24/m.0/Conv_param_0 632.452271 585.142883 485.706787 358.753082 257.903839 261.929504 478.557495 265.133545 406.082733 655.566467 667.340576 808.379150 561.156433 309.269897 257.138916 575.752075 581.220093 672.082703 362.755920 279.372711 627.493347 577.029358 531.893677 375.861298 421.891327 530.267090 907.839417 510.492615 562.673889 379.702209 293.396515 292.571442 284.257935 626.737305 317.965790 415.157227 575.752075 297.933563 289.639191 556.652771 554.575684 455.111115 454.713257 343.814941 266.628387 305.995300 311.119598 549.015320 364.535400 430.266357 327.576843 286.607147 417.154785 692.204956 445.751495 356.784637 383.905518 760.514648 513.009888 367.886841 536.557007 263.789032 565.118958 324.107147 744.727295 375.589905 543.281433 419.848267 484.350098 416.820496 319.332092 657.222961 312.803375 510.492615 622.239197 841.734619 492.606079 809.637329 260.356354 279.673126 515.041565 830.977600 503.087036 840.374817 498.268219 529.188171 539.618225 424.993469 378.596802 247.239548 287.398895 459.533600 249.134109 395.583252 557.547729 624.855286 728.560181 525.977722 288.035431 244.911499 551.635193 534.901794 658.054382 352.195007 268.140198 617.438599 572.583374 511.748169 374.238861 411.870178 524.651550 791.166504 478.117676 504.550903 388.783264 276.992554 290.772491 290.772491 635.931580 316.226135 408.313965 562.673889 296.574677 280.124939 548.436462 513.009888 443.471436 443.093689 332.603577 261.271729 293.231110 297.933563 501.631592 349.591400 403.875793 306.897949 280.426941 399.840118 678.658813 442.716614 343.814941 377.771973 802.146484 501.148376 359.248596 506.516052 256.631470 539.618225 302.085938 583.501953 346.794678 492.606079 396.487823 449.215881 409.277710 317.577545 622.239197 306.175415 480.325012 548.147522 819.200012 478.557495 722.990967 249.852051 270.651398 507.504364 750.637817 498.745911 808.379150 513.516296 542.714661 544.418640 546.420166 309.822510 239.058838 288.674805 451.163910 241.276443 380.535461 500.184631 603.121155 679.545349 522.019104 283.020691 243.080383 530.267090 540.459229 691.285095 339.994781 268.694214 633.993896 564.199585 506.023346 374.508270 407.993713 515.041565 743.131409 465.288025 485.706787 383.057434 263.789032 293.065918 296.913239 629.772400 307.805908 403.875793 562.673889 301.211365 274.218231 530.537476 504.550903 423.264465 457.915527 327.576843 264.459595 296.743866 291.097931 495.893219 355.079865 405.133972 307.623901 278.475372 402.625397 658.054382 451.947876 345.872345 373.969818 773.519714 506.023346 352.911804 495.893219 253.258026 552.220825 296.236908 564.199585 340.217133 485.253754 394.383606 449.215881 404.818665 320.512634 644.200623 312.427643 456.308807 538.779907 813.435486 448.055115 704.390015 247.710480 268.278503 499.224579 705.823608 508.496552 807.124878 533.256775 
/model.20/cv1/conv/Conv_param_0 323.900391 183.477341 319.071991 354.716766 300.974854 242.033508 310.582886 218.662979 347.253662 321.615051 437.029907 355.461670 301.856903 219.890442 388.115021 252.617996 248.394119 128.615891 417.323029 273.042694 285.843201 304.925964 299.050751 343.102966 362.451965 263.786163 231.869568 118.545891 407.669098 356.807281 435.842377 330.910461 366.656616 393.112976 600.943298 350.518341 170.979233 157.279205 318.754120 204.182098 424.489441 243.520294 249.898453 180.181305 191.263626 236.022949 260.467957 322.483612 272.005066 154.445633 185.060516 343.822083 392.912598 285.695984 402.157928 361.624115 237.497116 273.667419 176.533981 236.942123 248.180115 242.310089 288.046814 167.230270 165.221313 245.039429 277.588928 380.366333 358.318237 386.998596 339.387451 323.606567 475.619873 224.620850 322.365814 366.258575 386.705750 389.644440 265.186279 266.720398 420.797058 409.308868 220.042877 348.859253 390.478699 157.010605 204.207382 173.405884 396.866516 296.694885 247.861176 225.245193 293.359863 288.968597 293.797028 331.151611 316.241211 234.348633 344.191864 183.999619 131.491608 192.690979 647.670532 202.663162 431.404388 239.080795 333.677094 345.726196 292.635406 178.031662 342.296295 275.660828 267.327271 304.414795 309.137177 499.511810 307.913971 416.047089 169.341049 371.939941 230.940063 281.304352 205.015076 397.144653 543.119324 341.064636 234.884232 296.417938 
/model.20/cv2/conv/Conv_param_0 372.113342 205.914536 220.098907 330.049713 176.119141 166.817184 209.239471 408.963654 221.599030 315.984680 253.902191 72.059235 336.512177 255.382690 220.917328 517.330078 300.724457 317.646362 215.473282 534.741516 349.296967 162.864777 404.527924 194.018814 260.426727 226.111359 251.765793 499.489075 240.673477 214.717957 203.196579 257.166260 308.998169 306.805969 188.885880 303.940704 238.206177 276.585999 384.538208 273.697693 233.408966 288.777374 382.292175 398.725128 221.054810 326.827820 232.485565 161.511963 208.568359 252.942474 303.848083 272.587280 243.285400 224.436356 319.779602 230.750717 297.034790 270.569061 203.219391 322.225464 329.463257 334.541962 242.890503 378.710144 257.137665 292.414093 266.514496 222.676880 172.890274 243.932419 266.385468 198.204407 240.256927 220.747559 325.592163 483.486511 557.299683 210.592926 296.672363 271.488953 331.063477 253.101425 199.713547 565.184021 144.522598 313.742035 203.074066 532.432800 495.506195 338.944611 221.139694 212.958878 434.869507 318.614929 198.735107 341.362335 107.244385 314.625214 438.014130 321.157959 288.404938 159.571335 284.118500 341.969238 334.542145 392.744690 374.633057 611.221069 252.427994 238.212280 333.709290 207.202484 284.825256 192.900803 229.769302 370.976135 276.612122 295.740662 230.569656 287.367157 160.547455 213.389252 219.256180 348.705750 337.878815 330.614838 205.401199 300.728821 
/model.20/m/m.0/cv1/conv/Conv_param_0 360.031036 248.765656 171.948120 343.509155 122.962112 314.910095 179.759872 360.627502 535.569763 296.140991 351.343689 154.186371 184.258224 210.086548 194.337280 279.448151 316.098450 465.722198 362.853607 162.208298 172.912003 362.877625 222.527084 168.928589 328.047974 195.843536 157.157364 135.781509 345.781067 416.506104 342.404297 232.291916 366.416809 263.143372 163.865356 271.540131 123.120010 176.266953 195.961975 208.472534 231.168594 228.593399 369.281891 260.424286 183.154007 176.323303 175.135773 190.477585 324.815887 420.212311 299.328430 248.851990 183.681488 225.585114 194.858536 156.527008 141.398346 257.162384 281.260651 220.538559 305.468689 274.760895 286.987305 125.314568 160.061081 233.306091 287.553864 302.899963 158.391586 169.082596 197.705948 216.518005 248.713470 265.364777 259.448059 200.863678 120.930161 451.600067 264.507507 277.467194 245.853958 270.859589 200.757462 331.252258 339.556976 174.783249 156.410889 319.441040 331.573761 317.309052 379.691193 237.072723 191.192307 118.773361 315.270844 299.386047 274.542664 197.146927 206.061417 266.518768 180.359116 366.194733 273.617920 211.098312 247.003113 312.776886 173.231598 283.683929 169.718994 341.078491 117.908493 247.364792 360.479858 210.433701 190.098907 353.168335 361.529053 1055.752319 252.862442 204.227432 253.592743 250.325027 211.535629 349.363373 206.167679 152.945618 278.329010 192.263535 
/model.20/m/m.0/cv2/conv/Conv_param_0 45.017376 27.344879 111.244354 38.263416 108.342232 34.224689 59.802807 46.861294 61.509354 60.609577 41.034462 55.507343 48.247112 59.215313 75.023613 207.467422 38.298565 43.702744 38.129421 61.765408 157.924561 55.207127 46.239948 192.401794 44.290905 65.903786 64.586182 63.363876 51.534630 51.913277 83.497696 54.756271 85.714905 66.197517 72.396751 50.692375 80.807343 51.066517 66.763840 50.055733 32.201172 100.221298 57.608738 26.103109 64.686104 31.294474 65.101387 51.669086 56.130291 51.646965 44.592175 47.761185 91.179153 31.736885 76.370483 53.362064 38.133385 71.850060 50.587666 106.648575 43.398636 42.837639 103.748154 85.878670 36.689365 48.452007 40.627937 50.395683 64.845604 50.913204 79.256752 45.619999 56.443451 104.534790 52.778908 45.127041 288.208710 51.158646 56.834530 46.063347 32.739429 114.467651 231.927261 69.899292 29.974304 34.026215 143.977432 30.068962 53.885151 47.010841 91.817726 39.645470 61.849785 47.586185 47.730881 66.424789 37.666206 49.786263 111.658150 41.636192 69.406746 71.755074 36.516022 54.238880 62.043407 62.201336 61.292267 166.992706 73.613640 57.132591 60.069862 30.638578 72.852646 56.610725 51.791458 44.582264 45.810200 50.996944 59.886372 73.993683 43.390099 58.207977 122.696289 41.794579 53.259300 88.649132 35.125183 38.933025 
/model.20/cv3/conv/Conv_param_0 136.683502 94.233269 136.531876 110.320671 235.838379 70.294991 105.035461 58.391678 141.228912 134.529556 148.222153 412.609528 294.030487 251.372162 76.390961 108.722359 103.555588 87.302902 114.577568 69.312668 102.855988 467.615387 100.175896 269.411072 319.732513 132.674835 106.053558 92.302490 110.107635 152.988724 88.019463 101.676552 138.154770 120.492233 107.971741 158.173203 264.821838 154.414169 78.825325 133.605164 364.322479 116.241653 92.898041 100.242477 156.622025 101.051323 178.734695 141.312180 111.410400 89.167931 129.915497 218.604141 99.842918 86.835541 48.457573 149.980377 125.494644 111.116753 231.840881 129.421387 137.778946 140.984085 150.697250 85.186058 156.389252 104.066803 126.189827 86.913658 311.286102 113.034210 92.478371 252.388031 87.752541 122.155945 191.969925 122.816521 112.532104 191.783310 125.863861 81.744980 96.848373 196.776001 179.478409 86.907440 164.433899 105.665962 85.122711 166.607132 125.892418 120.673294 109.156967 122.913063 114.376503 119.038765 146.365570 60.846634 104.238396 121.195007 222.373077 107.297531 173.383240 107.586525 113.644829 183.492004 88.928329 124.578552 110.492966 92.024529 154.457764 196.792282 75.084503 91.439690 147.877411 102.835838 106.654350 193.254837 111.750626 427.907837 144.888901 318.862061 114.160294 156.052841 91.134048 160.693497 121.054070 120.441612 166.698578 120.883820 165.931320 126.196655 96.999031 258.199097 97.705040 200.348175 155.756409 312.378326 102.458504 105.404716 153.038773 156.153076 116.537628 119.538383 125.651100 93.981476 157.700180 146.245224 112.703896 125.491989 596.424744 127.257431 68.338104 97.707504 106.368286 108.442711 107.628998 213.797943 82.578484 121.390251 140.442902 96.552643 125.797432 123.005997 99.925751 191.638367 102.851540 159.926239 193.302444 113.739357 125.739876 99.435875 155.850800 234.654480 83.008514 124.753532 122.706383 101.798599 204.922058 206.531494 318.822845 145.961029 98.131920 112.364067 87.287483 67.877922 107.214981 68.466553 78.345139 76.353607 265.830811 106.369881 120.587822 175.674454 129.503067 129.237518 126.332024 79.361488 132.431168 167.905975 113.177757 136.895203 85.468399 162.220108 138.534760 144.281860 188.459656 128.500137 106.550926 202.532730 101.336258 101.247025 103.249001 139.890137 223.443115 181.282104 126.165382 153.332428 143.549194 498.124542 277.753876 338.240601 86.246094 107.091057 291.849854 131.316772 264.957184 113.205215 109.948524 360.205200 141.605362 124.500267 142.585800 101.703079 168.906693 50.799919 173.287064 155.213150 261.954132 135.389099 105.216270 146.452347 204.145538 128.879440 165.570541 129.176727 111.500061 494.036255 200.399536 122.968002 117.539604 163.588699 71.544380 123.240196 245.487717 179.592133 160.107666 136.603958 
/model.21/conv/Conv_param_0 952.406555 2542.735596 5651.999023 1071.223633 569.581970 5648.323730 736.811584 1454.263184 1645.598999 679.568298 3234.328369 2848.043945 1663.631470 5251.901855 2622.833252 399.778839 1402.825684 2753.177002 1431.574951 948.673157 1303.541870 1929.085205 2134.956299 5952.117676 2490.110107 1847.968140 2081.177734 626.253479 1609.421265 1446.469238 1569.346436 552.144104 1214.079590 4591.284668 1637.211670 3877.839355 1034.340454 4644.801758 1963.636719 2539.504150 1872.394287 2810.382568 1925.814453 2452.693115 796.400024 4722.165527 4114.098633 1791.809814 771.478394 2190.064453 749.131592 1954.503784 853.843933 1289.849731 2508.249512 2046.108398 1716.756348 1243.357422 1433.971191 789.433472 3722.501953 826.667053 761.127991 2761.711670 2081.517334 1047.369995 3615.884033 2104.283203 1586.610840 2663.832275 1338.004395 1554.411377 2238.769531 3886.172119 1342.126953 714.684082 1876.308350 1254.166626 1488.740601 1922.922119 859.329529 1142.919434 3548.395996 3805.158203 629.696594 850.994690 1858.848633 2090.237793 522.495361 1442.762451 1407.677002 491.414337 3499.187744 2982.358643 847.508545 1355.473389 1488.504517 2885.658447 2177.507812 437.610962 783.179993 3680.296631 715.212402 452.195557 2518.953857 1117.839355 4422.246094 717.716187 1965.274902 1478.191040 1419.623413 5731.762207 837.437805 1160.059570 3384.946045 1566.308960 939.765015 1340.638306 904.513062 2117.512939 2859.020996 3173.355469 2910.808350 1024.869263 3526.655762 1629.383057 1318.907227 4757.717773 1294.941284 1796.917358 1188.725342 939.577759 1487.280273 1002.795654 3719.002686 1860.535767 878.039795 2295.485840 2907.224609 1366.274780 1253.825684 878.268982 1132.776733 5207.132812 1782.411499 719.045959 1322.272949 1726.264404 1873.918701 984.416504 3100.397705 598.678894 884.974182 1836.584717 4152.428711 3756.768799 1777.626831 6431.487793 1360.924561 1142.670898 1440.257812 4222.869141 701.412231 2748.908203 2974.778809 2247.786133 2536.140137 618.880005 1151.225220 2425.806152 9122.879883 1858.970947 1837.043945 2438.925293 1811.434082 3954.168457 7725.230957 1999.872559 1626.410278 3760.229736 779.139099 842.414185 3298.286621 3589.717773 763.579285 1549.264160 5735.982910 5752.969727 4812.558105 2907.414795 974.745789 1854.482544 1504.840820 1623.930542 3381.759277 1202.911987 1424.526245 584.128296 3945.708496 985.432739 3161.304199 1162.359131 4033.815674 3228.528076 1894.844238 3891.788574 3399.975830 4247.072266 1032.606567 1172.138428 3535.521729 2107.169434 1026.350220 811.036438 1036.647461 1052.996948 2807.174072 3293.426514 4862.370117 1002.336060 4848.395020 785.021606 929.700562 727.892334 3759.504883 3858.937744 1369.645996 3640.602539 3361.946533 4771.855957 1209.182373 1305.973633 1110.615234 1238.588257 652.906067 3148.536133 2349.886719 1078.142212 1288.354980 1809.064087 1033.475586 5407.743164 2535.029541 3577.887207 1282.690796 579.526001 3402.164551 573.653992 1510.122437 1163.107300 871.667786 1646.907349 3139.687500 1220.210693 1675.049805 4010.787354 
/model.24/m.1/Conv_param_0 552.514099 498.268219 479.881927 408.634705 232.436096 399.226379 327.370667 260.356354 293.065918 370.507111 350.533691 402.313995 380.535461 291.587433 270.510651 671.648804 493.072968 699.653015 302.965637 284.257935 347.026031 383.057434 301.560577 368.930481 492.140015 302.261475 655.153687 307.442078 302.261475 326.139191 287.557770 329.235443 297.592682 297.422546 353.872101 415.820953 545.560547 334.313629 292.078583 445.751495 362.503143 305.635712 323.100616 304.205841 270.089294 302.965637 287.876038 535.728088 383.622437 559.045654 299.304932 357.766144 361.998627 481.213684 319.136200 313.368652 291.750977 651.869690 421.549438 402.003082 349.356628 343.361084 363.262573 341.109497 469.064026 311.678864 387.047638 321.701904 351.718750 386.472534 333.670288 369.717133 328.611481 597.921814 382.213074 1022.490417 480.768951 433.854889 275.379578 310.377075 333.670288 524.651550 405.133972 971.413574 708.708435 570.385986 494.479095 551.050842 430.622498 282.713043 394.682861 325.323334 258.416290 287.716827 352.672546 339.772675 376.133057 375.318909 288.195007 275.671448 676.892639 487.985016 712.591736 293.396515 285.192993 343.814941 380.257324 295.899872 367.367218 486.615509 296.743866 655.979858 301.560577 295.899872 323.703796 277.140106 319.332092 336.911926 296.913239 346.332886 416.486816 536.004150 339.329407 286.923309 440.094727 362.755920 304.562042 319.724640 301.385864 277.287842 304.562042 289.156189 542.149048 398.004578 569.449341 313.368652 368.669037 367.107971 479.439606 320.710236 320.315277 300.689026 633.607788 425.689026 399.533020 353.391296 344.954895 365.560089 338.006500 471.188416 315.267883 384.189087 313.936035 352.911804 389.656921 340.439789 369.192322 338.666656 582.521851 370.507111 990.841919 468.641449 416.820496 283.020691 312.803375 334.528595 518.119507 409.922791 984.280029 685.816772 587.787598 481.213684 515.296692 508.248169 238.183151 373.701172 323.703796 261.403015 285.506042 349.591400 332.816376 362.250671 368.669037 282.713043 279.072968 664.782104 491.210571 732.149170 294.059937 288.835083 348.654144 384.189087 292.571442 367.107971 484.350098 290.935120 640.630554 294.059937 286.923309 336.041351 277.583771 326.139191 343.361084 298.446350 373.432892 416.153595 558.145935 381.652222 292.736084 451.555542 394.982513 313.936035 327.989929 313.368652 277.731964 306.716980 286.291687 543.565308 408.634705 576.709534 310.007141 395.884338 372.363647 492.140015 330.910950 335.175262 313.180023 652.687622 436.769104 397.700317 352.433594 350.770081 364.535400 333.884460 475.061188 297.082825 380.814056 310.933655 350.297638 411.870178 355.808472 368.407928 357.029510 591.127258 363.516418 1044.038208 480.768951 401.382721 292.406952 327.783234 328.404053 540.740112 419.509674 959.763855 681.325439 
/model.23/cv1/conv/Conv_param_0 221.634460 332.296143 244.258972 158.980942 398.198639 121.910667 119.234726 216.304108 268.912750 288.564880 284.863190 220.341873 404.917816 236.176758 393.584564 542.814331 388.950043 391.177094 428.496826 245.986450 103.822708 243.467972 306.217957 355.833984 300.177948 319.644775 459.790375 247.943054 411.291565 396.732483 265.187164 295.843689 345.764893 223.122528 419.499786 425.670349 309.031403 97.724380 232.606918 385.929535 244.007339 353.356873 261.066925 423.796173 208.731842 130.533264 307.971771 156.391632 316.238678 355.673065 280.430054 226.358017 222.621414 384.730469 371.493408 348.173309 372.939850 364.031097 268.268829 390.562286 432.363922 292.853180 181.136581 236.375076 284.770447 404.212372 282.434692 383.182526 437.168304 294.068298 365.953613 452.094391 249.927917 191.889206 376.161499 422.002502 390.422333 324.255188 83.608360 379.224121 210.176331 460.424194 254.145996 298.592316 355.474121 450.744507 382.690460 357.017914 121.791649 412.991364 358.013062 240.113388 362.528992 448.390472 286.348572 293.880402 287.596222 259.843506 364.475555 427.335266 462.302856 217.041931 460.033234 285.108765 117.985870 338.209076 334.756287 351.461639 303.395966 259.572449 341.718628 366.188629 289.444000 179.149399 325.703918 434.675262 336.806671 283.433777 170.525116 398.164429 327.608917 480.140991 228.099380 266.675140 278.917114 357.201538 295.999390 321.179443 190.105087 368.627014 197.694977 147.614868 373.070038 325.880554 311.953796 366.442719 168.339462 319.759552 356.024170 386.602112 261.239746 384.964233 253.895676 615.963318 288.459900 509.380341 366.143341 360.604797 216.931610 158.602798 179.558258 296.455475 417.545898 281.000488 390.094574 320.661438 240.703796 250.678833 129.685333 170.615677 90.362526 539.992798 377.319244 496.289276 337.372070 237.547775 259.552582 159.980576 341.552795 232.840286 265.438110 225.233337 284.821472 297.701141 300.020172 460.846252 210.597656 522.321472 321.075928 285.812683 263.720795 290.522888 332.303192 223.127686 349.354401 235.432632 136.846100 293.905396 213.866226 279.800537 268.617157 194.395157 203.304108 242.490021 377.739960 321.052002 453.705597 216.699020 326.461670 250.447830 293.477814 417.871490 143.814453 257.268829 395.581146 296.083496 190.882416 499.497101 111.942734 454.831635 360.146545 238.262253 406.285583 291.976227 338.839630 211.686737 446.478729 431.697479 139.722809 187.841141 223.632782 182.889420 233.046371 293.561554 275.049683 273.805450 398.669800 285.138245 359.911560 227.075073 282.199036 407.801666 304.285828 248.242432 235.968964 228.022049 313.163574 324.193573 529.683899 118.607849 117.003983 278.351440 342.451355 265.682587 139.401443 252.750427 548.356567 351.512665 347.774841 386.288757 231.856781 321.565216 254.004593 388.123688 272.742706 377.805237 
